{
  "version": "1.0",
  "truncation": null,
  "padding": null,
  "added_tokens": [
    {
      "id": 0,
      "content": "<pad>",
      "single_word": false,
      "lstrip": false,
      "rstrip": false,
      "normalized": false,
      "special": true
    },
    {
      "id": 1,
      "content": "<unk>",
      "single_word": false,
      "lstrip": false,
      "rstrip": false,
      "normalized": false,
      "special": true
    },
    {
      "id": 2,
      "content": "<bos>",
      "single_word": false,
      "lstrip": false,
      "rstrip": false,
      "normalized": false,
      "special": true
    },
    {
      "id": 3,
      "content": "<eos>",
      "single_word": false,
      "lstrip": false,
      "rstrip": false,
      "normalized": false,
      "special": true
    }
  ],
  "normalizer": null,
  "pre_tokenizer": {
    "type": "Whitespace"
  },
  "post_processor": null,
  "decoder": null,
  "model": {
    "type": "BPE",
    "dropout": null,
    "unk_token": "<unk>",
    "continuing_subword_prefix": null,
    "end_of_word_suffix": null,
    "fuse_unk": false,
    "byte_fallback": false,
    "ignore_merges": false,
    "vocab": {
      "<pad>": 0,
      "<unk>": 1,
      "<bos>": 2,
      "<eos>": 3,
      "!": 4,
      "\"": 5,
      "#": 6,
      "$": 7,
      "%": 8,
      "&": 9,
      "'": 10,
      "(": 11,
      ")": 12,
      "*": 13,
      "+": 14,
      ",": 15,
      "-": 16,
      ".": 17,
      "/": 18,
      "0": 19,
      "1": 20,
      "2": 21,
      "3": 22,
      "4": 23,
      "5": 24,
      "6": 25,
      "7": 26,
      "8": 27,
      "9": 28,
      ":": 29,
      ";": 30,
      "<": 31,
      "=": 32,
      ">": 33,
      "?": 34,
      "@": 35,
      "A": 36,
      "B": 37,
      "C": 38,
      "D": 39,
      "E": 40,
      "F": 41,
      "G": 42,
      "H": 43,
      "I": 44,
      "J": 45,
      "K": 46,
      "L": 47,
      "M": 48,
      "N": 49,
      "O": 50,
      "P": 51,
      "Q": 52,
      "R": 53,
      "S": 54,
      "T": 55,
      "U": 56,
      "V": 57,
      "W": 58,
      "X": 59,
      "Y": 60,
      "Z": 61,
      "[": 62,
      "]": 63,
      "^": 64,
      "_": 65,
      "`": 66,
      "a": 67,
      "b": 68,
      "c": 69,
      "d": 70,
      "e": 71,
      "f": 72,
      "g": 73,
      "h": 74,
      "i": 75,
      "j": 76,
      "k": 77,
      "l": 78,
      "m": 79,
      "n": 80,
      "o": 81,
      "p": 82,
      "q": 83,
      "r": 84,
      "s": 85,
      "t": 86,
      "u": 87,
      "v": 88,
      "w": 89,
      "x": 90,
      "y": 91,
      "z": 92,
      "{": 93,
      "|": 94,
      "}": 95,
      "~": 96,
      "£": 97,
      "§": 98,
      "©": 99,
      "®": 100,
      "°": 101,
      "±": 102,
      "¶": 103,
      "·": 104,
      "À": 105,
      "Á": 106,
      "Ä": 107,
      "Æ": 108,
      "É": 109,
      "Í": 110,
      "Ñ": 111,
      "Ó": 112,
      "Ö": 113,
      "×": 114,
      "Ú": 115,
      "Ü": 116,
      "Þ": 117,
      "à": 118,
      "á": 119,
      "ä": 120,
      "å": 121,
      "ç": 122,
      "é": 123,
      "í": 124,
      "ï": 125,
      "ð": 126,
      "ñ": 127,
      "ó": 128,
      "ô": 129,
      "ö": 130,
      "ø": 131,
      "ú": 132,
      "ü": 133,
      "þ": 134,
      "ć": 135,
      "Č": 136,
      "č": 137,
      "Ď": 138,
      "ı": 139,
      "Ň": 140,
      "ň": 141,
      "Š": 142,
      "š": 143,
      "ˆ": 144,
      "́": 145,
      "̃": 146,
      "̈": 147,
      "Β": 148,
      "Σ": 149,
      "Τ": 150,
      "ά": 151,
      "α": 152,
      "β": 153,
      "γ": 154,
      "δ": 155,
      "ε": 156,
      "ζ": 157,
      "θ": 158,
      "κ": 159,
      "λ": 160,
      "μ": 161,
      "π": 162,
      "ρ": 163,
      "σ": 164,
      "τ": 165,
      "χ": 166,
      "ω": 167,
      "с": 168,
      "‐": 169,
      "–": 170,
      "—": 171,
      "‘": 172,
      "’": 173,
      "‚": 174,
      "“": 175,
      "”": 176,
      "„": 177,
      "‟": 178,
      "†": 179,
      "‡": 180,
      "•": 181,
      "⁄": 182,
      "€": 183,
      "←": 184,
      "↑": 185,
      "→": 186,
      "↓": 187,
      "⇑": 188,
      "⇓": 189,
      "∈": 190,
      "−": 191,
      "∗": 192,
      "√": 193,
      "∼": 194,
      "≈": 195,
      "≡": 196,
      "≤": 197,
      "≥": 198,
      "≫": 199,
      "⋅": 200,
      "□": 201,
      "▪": 202,
      "●": 203,
      "◦": 204,
      "가": 205,
      "각": 206,
      "간": 207,
      "갈": 208,
      "감": 209,
      "값": 210,
      "강": 211,
      "갖": 212,
      "같": 213,
      "개": 214,
      "객": 215,
      "거": 216,
      "건": 217,
      "검": 218,
      "것": 219,
      "게": 220,
      "겠": 221,
      "격": 222,
      "견": 223,
      "결": 224,
      "겹": 225,
      "경": 226,
      "계": 227,
      "고": 228,
      "곡": 229,
      "곱": 230,
      "공": 231,
      "과": 232,
      "관": 233,
      "교": 234,
      "구": 235,
      "군": 236,
      "귀": 237,
      "규": 238,
      "균": 239,
      "그": 240,
      "근": 241,
      "급": 242,
      "기": 243,
      "까": 244,
      "깔": 245,
      "꾸": 246,
      "끌": 247,
      "끼": 248,
      "나": 249,
      "난": 250,
      "날": 251,
      "남": 252,
      "낮": 253,
      "내": 254,
      "낸": 255,
      "낼": 256,
      "냐": 257,
      "너": 258,
      "넓": 259,
      "논": 260,
      "높": 261,
      "놓": 262,
      "누": 263,
      "눈": 264,
      "느": 265,
      "는": 266,
      "능": 267,
      "니": 268,
      "다": 269,
      "단": 270,
      "달": 271,
      "답": 272,
      "당": 273,
      "대": 274,
      "더": 275,
      "데": 276,
      "도": 277,
      "독": 278,
      "동": 279,
      "되": 280,
      "된": 281,
      "될": 282,
      "두": 283,
      "둘": 284,
      "드": 285,
      "든": 286,
      "들": 287,
      "등": 288,
      "디": 289,
      "따": 290,
      "때": 291,
      "떤": 292,
      "떨": 293,
      "또": 294,
      "뚤": 295,
      "라": 296,
      "란": 297,
      "래": 298,
      "램": 299,
      "략": 300,
      "량": 301,
      "러": 302,
      "런": 303,
      "럴": 304,
      "럼": 305,
      "렇": 306,
      "렌": 307,
      "려": 308,
      "력": 309,
      "련": 310,
      "렵": 311,
      "령": 312,
      "례": 313,
      "로": 314,
      "록": 315,
      "론": 316,
      "뢰": 317,
      "료": 318,
      "루": 319,
      "룹": 320,
      "류": 321,
      "률": 322,
      "르": 323,
      "른": 324,
      "를": 325,
      "름": 326,
      "리": 327,
      "린": 328,
      "림": 329,
      "립": 330,
      "마": 331,
      "만": 332,
      "많": 333,
      "말": 334,
      "맞": 335,
      "매": 336,
      "먼": 337,
      "멀": 338,
      "메": 339,
      "멘": 340,
      "며": 341,
      "면": 342,
      "명": 343,
      "몇": 344,
      "모": 345,
      "목": 346,
      "못": 347,
      "무": 348,
      "문": 349,
      "물": 350,
      "므": 351,
      "미": 352,
      "민": 353,
      "및": 354,
      "바": 355,
      "반": 356,
      "받": 357,
      "발": 358,
      "방": 359,
      "배": 360,
      "버": 361,
      "번": 362,
      "법": 363,
      "벽": 364,
      "변": 365,
      "별": 366,
      "병": 367,
      "보": 368,
      "복": 369,
      "본": 370,
      "볼": 371,
      "부": 372,
      "분": 373,
      "불": 374,
      "비": 375,
      "빈": 376,
      "쁜": 377,
      "사": 378,
      "삭": 379,
      "산": 380,
      "삶": 381,
      "상": 382,
      "색": 383,
      "생": 384,
      "서": 385,
      "석": 386,
      "섞": 387,
      "선": 388,
      "설": 389,
      "성": 390,
      "소": 391,
      "속": 392,
      "수": 393,
      "숙": 394,
      "순": 395,
      "술": 396,
      "숲": 397,
      "쉽": 398,
      "슈": 399,
      "슷": 400,
      "승": 401,
      "시": 402,
      "식": 403,
      "신": 404,
      "실": 405,
      "심": 406,
      "써": 407,
      "쓸": 408,
      "씩": 409,
      "아": 410,
      "악": 411,
      "안": 412,
      "않": 413,
      "알": 414,
      "았": 415,
      "앙": 416,
      "앞": 417,
      "야": 418,
      "약": 419,
      "양": 420,
      "어": 421,
      "언": 422,
      "얻": 423,
      "얼": 424,
      "없": 425,
      "엇": 426,
      "었": 427,
      "엎": 428,
      "에": 429,
      "여": 430,
      "역": 431,
      "연": 432,
      "였": 433,
      "영": 434,
      "예": 435,
      "오": 436,
      "온": 437,
      "와": 438,
      "완": 439,
      "왜": 440,
      "외": 441,
      "왼": 442,
      "요": 443,
      "용": 444,
      "우": 445,
      "욱": 446,
      "운": 447,
      "울": 448,
      "움": 449,
      "워": 450,
      "원": 451,
      "웨": 452,
      "위": 453,
      "유": 454,
      "율": 455,
      "으": 456,
      "은": 457,
      "을": 458,
      "음": 459,
      "응": 460,
      "의": 461,
      "이": 462,
      "익": 463,
      "인": 464,
      "일": 465,
      "임": 466,
      "입": 467,
      "있": 468,
      "자": 469,
      "작": 470,
      "잔": 471,
      "잘": 472,
      "장": 473,
      "재": 474,
      "쟁": 475,
      "저": 476,
      "적": 477,
      "전": 478,
      "절": 479,
      "점": 480,
      "정": 481,
      "제": 482,
      "젤": 483,
      "져": 484,
      "조": 485,
      "족": 486,
      "존": 487,
      "좀": 488,
      "좁": 489,
      "종": 490,
      "좋": 491,
      "좌": 492,
      "주": 493,
      "준": 494,
      "줄": 495,
      "중": 496,
      "즈": 497,
      "즉": 498,
      "증": 499,
      "지": 500,
      "직": 501,
      "진": 502,
      "질": 503,
      "집": 504,
      "징": 505,
      "째": 506,
      "쪽": 507,
      "차": 508,
      "찰": 509,
      "참": 510,
      "찾": 511,
      "채": 512,
      "처": 513,
      "척": 514,
      "청": 515,
      "체": 516,
      "최": 517,
      "추": 518,
      "축": 519,
      "출": 520,
      "충": 521,
      "취": 522,
      "측": 523,
      "치": 524,
      "친": 525,
      "칠": 526,
      "칭": 527,
      "카": 528,
      "칸": 529,
      "커": 530,
      "켜": 531,
      "켰": 532,
      "크": 533,
      "큰": 534,
      "클": 535,
      "키": 536,
      "킨": 537,
      "킬": 538,
      "킴": 539,
      "타": 540,
      "태": 541,
      "택": 542,
      "터": 543,
      "텔": 544,
      "토": 545,
      "통": 546,
      "트": 547,
      "특": 548,
      "파": 549,
      "판": 550,
      "퍼": 551,
      "편": 552,
      "평": 553,
      "폐": 554,
      "포": 555,
      "폭": 556,
      "표": 557,
      "프": 558,
      "피": 559,
      "필": 560,
      "하": 561,
      "학": 562,
      "한": 563,
      "할": 564,
      "함": 565,
      "합": 566,
      "항": 567,
      "해": 568,
      "행": 569,
      "향": 570,
      "허": 571,
      "헌": 572,
      "험": 573,
      "헨": 574,
      "현": 575,
      "형": 576,
      "호": 577,
      "혹": 578,
      "혼": 579,
      "화": 580,
      "확": 581,
      "환": 582,
      "활": 583,
      "회": 584,
      "획": 585,
      "효": 586,
      "후": 587,
      "흑": 588,
      "흔": 589,
      "히": 590,
      "in": 591,
      "th": 592,
      "re": 593,
      "an": 594,
      "on": 595,
      "ti": 596,
      "er": 597,
      "en": 598,
      "al": 599,
      "es": 600,
      "or": 601,
      "the": 602,
      "ed": 603,
      "of": 604,
      "at": 605,
      "is": 606,
      "and": 607,
      "ar": 608,
      "tion": 609,
      "as": 610,
      "ic": 611,
      "ro": 612,
      "ent": 613,
      "to": 614,
      "ac": 615,
      "ing": 616,
      "it": 617,
      "le": 618,
      "st": 619,
      "el": 620,
      "us": 621,
      "om": 622,
      "ation": 623,
      "id": 624,
      "ec": 625,
      "ol": 626,
      "ul": 627,
      "ve": 628,
      "he": 629,
      "il": 630,
      "for": 631,
      "ur": 632,
      "di": 633,
      "et": 634,
      "ch": 635,
      "un": 636,
      "ce": 637,
      "res": 638,
      "con": 639,
      "ati": 640,
      "em": 641,
      "ith": 642,
      "pro": 643,
      "os": 644,
      "ly": 645,
      "ad": 646,
      "with": 647,
      "su": 648,
      "20": 649,
      "ter": 650,
      "are": 651,
      "tr": 652,
      "lo": 653,
      "ap": 654,
      "am": 655,
      "od": 656,
      "be": 657,
      "ag": 658,
      "ab": 659,
      "im": 660,
      "ment": 661,
      "ev": 662,
      "The": 663,
      "com": 664,
      "ain": 665,
      "ut": 666,
      "op": 667,
      "ts": 668,
      "ig": 669,
      "ity": 670,
      "ir": 671,
      "ex": 672,
      "um": 673,
      "ff": 674,
      "ot": 675,
      "tic": 676,
      "ine": 677,
      "ate": 678,
      "oc": 679,
      "og": 680,
      "uc": 681,
      "si": 682,
      "ical": 683,
      "per": 684,
      "ther": 685,
      "ay": 686,
      "ph": 687,
      "that": 688,
      "cl": 689,
      "ell": 690,
      "se": 691,
      "ren": 692,
      "all": 693,
      "ess": 694,
      "ial": 695,
      "ents": 696,
      "sy": 697,
      "can": 698,
      "In": 699,
      "ary": 700,
      "ho": 701,
      "ver": 702,
      "pl": 703,
      "ht": 704,
      "mo": 705,
      "pati": 706,
      "rom": 707,
      "br": 708,
      "ud": 709,
      "ated": 710,
      "qu": 711,
      "we": 712,
      "end": 713,
      "ne": 714,
      "ep": 715,
      "ure": 716,
      "ence": 717,
      "li": 718,
      "vi": 719,
      "200": 720,
      "10": 721,
      "sp": 722,
      "by": 723,
      "low": 724,
      "cer": 725,
      "med": 726,
      "red": 727,
      "me": 728,
      "up": 729,
      "co": 730,
      "ha": 731,
      "tive": 732,
      "ug": 733,
      "use": 734,
      "ort": 735,
      "hy": 736,
      "erg": 737,
      "cell": 738,
      "dis": 739,
      "ri": 740,
      "ven": 741,
      "from": 742,
      "olog": 743,
      "ffec": 744,
      "ass": 745,
      "wh": 746,
      "ear": 747,
      "if": 748,
      "est": 749,
      "ia": 750,
      "not": 751,
      "cont": 752,
      "tions": 753,
      "te": 754,
      "reas": 755,
      "ers": 756,
      "one": 757,
      "ys": 758,
      ").": 759,
      "patients": 760,
      "tis": 761,
      "ant": 762,
      "fo": 763,
      "ion": 764,
      "par": 765,
      "ous": 766,
      "pre": 767,
      "iz": 768,
      "ple": 769,
      "19": 770,
      "ind": 771,
      "und": 772,
      "ew": 773,
      "reat": 774,
      "ow": 775,
      "201": 776,
      "form": 777,
      "gr": 778,
      "Th": 779,
      "act": 780,
      "ist": 781,
      "age": 782,
      "ill": 783,
      "out": 784,
      "ub": 785,
      "ations": 786,
      "ors": 787,
      "cells": 788,
      "effec": 789,
      "therap": 790,
      "str": 791,
      "gen": 792,
      "ge": 793,
      "comm": 794,
      "ory": 795,
      "thes": 796,
      "pr": 797,
      "ef": 798,
      "port": 799,
      "able": 800,
      "man": 801,
      "pres": 802,
      "ular": 803,
      "ll": 804,
      "sho": 805,
      "evel": 806,
      "may": 807,
      "ies": 808,
      "ach": 809,
      "lin": 810,
      "vid": 811,
      "ance": 812,
      "so": 813,
      "pain": 814,
      "ology": 815,
      "have": 816,
      "ual": 817,
      "ase": 818,
      "ak": 819,
      "ms": 820,
      "mp": 821,
      "//": 822,
      "uld": 823,
      "ct": 824,
      "tp": 825,
      "evelop": 826,
      "http": 827,
      "://": 828,
      "pos": 829,
      "ris": 830,
      "inter": 831,
      "embr": 832,
      "treat": 833,
      "ong": 834,
      "dr": 835,
      "ich": 836,
      "stem": 837,
      "ib": 838,
      "cancer": 839,
      "acti": 840,
      "ack": 841,
      "12": 842,
      "bo": 843,
      "ans": 844,
      "idence": 845,
      "eren": 846,
      "dies": 847,
      "sion": 848,
      "inc": 849,
      "ative": 850,
      "15": 851,
      "view": 852,
      "min": 853,
      "po": 854,
      "au": 855,
      "ose": 856,
      "clud": 857,
      "cons": 858,
      "therapy": 859,
      "duc": 860,
      "pe": 861,
      "igh": 862,
      "14": 863,
      "13": 864,
      "alth": 865,
      "ww": 866,
      "bas": 867,
      "int": 868,
      "av": 869,
      "other": 870,
      "cy": 871,
      "eral": 872,
      "treatment": 873,
      "ild": 874,
      "udies": 875,
      "ome": 876,
      "An": 877,
      "ast": 878,
      "ates": 879,
      "risk": 880,
      "rel": 881,
      "spec": 882,
      "uid": 883,
      "ob": 884,
      "which": 885,
      "gro": 886,
      "sub": 887,
      "ty": 888,
      "allerg": 889,
      "ely": 890,
      "anal": 891,
      "ma": 892,
      "system": 893,
      "ord": 894,
      "val": 895,
      "bi": 896,
      "blo": 897,
      "studies": 898,
      "trial": 899,
      "should": 900,
      "develop": 901,
      "ane": 902,
      "this": 903,
      "review": 904,
      "ath": 905,
      "ific": 906,
      "St": 907,
      "diff": 908,
      "fl": 909,
      "ip": 910,
      "oci": 911,
      "clin": 912,
      "00": 913,
      "atic": 914,
      "16": 915,
      "evidence": 916,
      "enti": 917,
      "includ": 918,
      "do": 919,
      "its": 920,
      "sur": 921,
      "car": 922,
      "ni": 923,
      "our": 924,
      "used": 925,
      "ide": 926,
      "ized": 927,
      "),": 928,
      "mon": 929,
      "Med": 930,
      "ins": 931,
      "mal": 932,
      "cur": 933,
      "patient": 934,
      "oid": 935,
      "ces": 936,
      "ue": 937,
      "ign": 938,
      "ace": 939,
      "Ch": 940,
      "has": 941,
      "ang": 942,
      "cent": 943,
      "unc": 944,
      "ect": 945,
      "ail": 946,
      "stud": 947,
      "Clin": 948,
      "reg": 949,
      "high": 950,
      "ugh": 951,
      "met": 952,
      "18": 953,
      "contro": 954,
      "ight": 955,
      "de": 956,
      "food": 957,
      "vity": 958,
      "col": 959,
      "ca": 960,
      "was": 961,
      "ard": 962,
      "resp": 963,
      "tional": 964,
      "ves": 965,
      "ult": 966,
      "no": 967,
      "cess": 968,
      "sec": 969,
      "cal": 970,
      "ines": 971,
      "lev": 972,
      "fol": 973,
      "ax": 974,
      "embry": 975,
      "cle": 976,
      "ks": 977,
      "ens": 978,
      "mat": 979,
      "ility": 980,
      "inal": 981,
      "Con": 982,
      "der": 983,
      "analys": 984,
      "fe": 985,
      "child": 986,
      "ner": 987,
      "symp": 988,
      "drug": 989,
      "):": 990,
      "17": 991,
      "more": 992,
      "bet": 993,
      "iti": 994,
      "mun": 995,
      "clinical": 996,
      "recomm": 997,
      "ute": 998,
      "ten": 999,
      "study": 1000,
      "ement": 1001,
      "org": 1002,
      "these": 1003,
      "ults": 1004,
      "aes": 1005,
      "into": 1006,
      "increas": 1007,
      "than": 1008,
      "their": 1009,
      "ici": 1010,
      "were": 1011,
      "gl": 1012,
      "les": 1013,
      "recommend": 1014,
      "sup": 1015,
      "go": 1016,
      "nal": 1017,
      "Can": 1018,
      "ality": 1019,
      "mus": 1020,
      "back": 1021,
      "nos": 1022,
      "blood": 1023,
      "ser": 1024,
      "umb": 1025,
      "differen": 1026,
      "ved": 1027,
      "af": 1028,
      "ond": 1029,
      "tim": 1030,
      "ication": 1031,
      "will": 1032,
      "Ac": 1033,
      "but": 1034,
      "air": 1035,
      "ural": 1036,
      "ari": 1037,
      "based": 1038,
      "anti": 1039,
      "All": 1040,
      "ra": 1041,
      "ever": 1042,
      "22": 1043,
      "sympto": 1044,
      "30": 1045,
      "He": 1046,
      "uro": 1047,
      "ble": 1048,
      "pt": 1049,
      "ade": 1050,
      "also": 1051,
      "there": 1052,
      "phys": 1053,
      "group": 1054,
      "ile": 1055,
      "ures": 1056,
      "andom": 1057,
      "over": 1058,
      "ric": 1059,
      "art": 1060,
      "199": 1061,
      "11": 1062,
      "peri": 1063,
      "24": 1064,
      "ulation": 1065,
      "25": 1066,
      "ational": 1067,
      "des": 1068,
      "onic": 1069,
      "ke": 1070,
      "ish": 1071,
      "vol": 1072,
      "As": 1073,
      "dep": 1074,
      "This": 1075,
      "uidel": 1076,
      "iat": 1077,
      "children": 1078,
      "ci": 1079,
      "report": 1080,
      "ween": 1081,
      "been": 1082,
      "associ": 1083,
      "wo": 1084,
      "ally": 1085,
      "vention": 1086,
      "effects": 1087,
      "Al": 1088,
      "plement": 1089,
      "fact": 1090,
      "sh": 1091,
      "ise": 1092,
      "requ": 1093,
      "between": 1094,
      "appro": 1095,
      "uns": 1096,
      "Com": 1097,
      "AR": 1098,
      "Am": 1099,
      "tes": 1100,
      "ating": 1101,
      "ust": 1102,
      "lar": 1103,
      "It": 1104,
      "mg": 1105,
      "random": 1106,
      "agnos": 1107,
      "ied": 1108,
      "earch": 1109,
      "eg": 1110,
      "ree": 1111,
      "anaes": 1112,
      "dec": 1113,
      "ety": 1114,
      "ody": 1115,
      "symptoms": 1116,
      "ox": 1117,
      "cho": 1118,
      "ress": 1119,
      "sure": 1120,
      "gram": 1121,
      "development": 1122,
      "Mo": 1123,
      "ergy": 1124,
      "els": 1125,
      "tern": 1126,
      "divid": 1127,
      "comp": 1128,
      "care": 1129,
      "some": 1130,
      "physical": 1131,
      "ben": 1132,
      "dur": 1133,
      "func": 1134,
      "Cancer": 1135,
      "who": 1136,
      "thod": 1137,
      "ensi": 1138,
      "they": 1139,
      "health": 1140,
      "ful": 1141,
      "provid": 1142,
      "ER": 1143,
      "activity": 1144,
      "26": 1145,
      "jec": 1146,
      "sk": 1147,
      "edu": 1148,
      "dise": 1149,
      "analysis": 1150,
      "effect": 1151,
      ".,": 1152,
      "most": 1153,
      "reast": 1154,
      "gi": 1155,
      "www": 1156,
      "por": 1157,
      "inf": 1158,
      "bl": 1159,
      "thro": 1160,
      "tissu": 1161,
      "tain": 1162,
      "Ad": 1163,
      "ons": 1164,
      "main": 1165,
      "23": 1166,
      "lled": 1167,
      "only": 1168,
      "such": 1169,
      "Di": 1170,
      "Im": 1171,
      "ext": 1172,
      "follow": 1173,
      "til": 1174,
      "produc": 1175,
      "Res": 1176,
      "ability": 1177,
      "amin": 1178,
      "meta": 1179,
      "ake": 1180,
      "cri": 1181,
      "non": 1182,
      "ger": 1183,
      "cor": 1184,
      "formation": 1185,
      "cre": 1186,
      "vari": 1187,
      "ubl": 1188,
      "Pr": 1189,
      "nor": 1190,
      "year": 1191,
      "when": 1192,
      "associated": 1193,
      "vers": 1194,
      "lim": 1195,
      "bec": 1196,
      "diagnos": 1197,
      "On": 1198,
      "ting": 1199,
      "mod": 1200,
      "chr": 1201,
      "reduc": 1202,
      "rect": 1203,
      "nec": 1204,
      "ocy": 1205,
      "sign": 1206,
      "iter": 1207,
      "specific": 1208,
      "IN": 1209,
      "trials": 1210,
      "breast": 1211,
      "test": 1212,
      "II": 1213,
      "whe": 1214,
      "atory": 1215,
      "ech": 1216,
      "ite": 1217,
      "results": 1218,
      "own": 1219,
      "rece": 1220,
      "ata": 1221,
      "ments": 1222,
      "Allergy": 1223,
      "impro": 1224,
      "quality": 1225,
      "lec": 1226,
      "method": 1227,
      "oral": 1228,
      "icine": 1229,
      "usion": 1230,
      "body": 1231,
      "eli": 1232,
      "Pro": 1233,
      "assess": 1234,
      "htm": 1235,
      "vis": 1236,
      "ition": 1237,
      "son": 1238,
      "ou": 1239,
      "tra": 1240,
      "controlled": 1241,
      "line": 1242,
      "ted": 1243,
      "50": 1244,
      "syn": 1245,
      "disease": 1246,
      "CA": 1247,
      "Co": 1248,
      "ek": 1249,
      "hist": 1250,
      "benef": 1251,
      "ases": 1252,
      "unsw": 1253,
      "28": 1254,
      "hor": 1255,
      "any": 1256,
      "pot": 1257,
      "def": 1258,
      "way": 1259,
      "thesia": 1260,
      "ral": 1261,
      "fore": 1262,
      "ause": 1263,
      "need": 1264,
      "oles": 1265,
      "membr": 1266,
      "ese": 1267,
      "uidelines": 1268,
      "agement": 1269,
      "MA": 1270,
      "lay": 1271,
      "Un": 1272,
      "erm": 1273,
      "action": 1274,
      "ges": 1275,
      "program": 1276,
      "very": 1277,
      "dividual": 1278,
      "fir": 1279,
      "sm": 1280,
      "time": 1281,
      "ediat": 1282,
      "ogen": 1283,
      "present": 1284,
      "For": 1285,
      "ung": 1286,
      "ref": 1287,
      "systematic": 1288,
      "27": 1289,
      "outcom": 1290,
      "during": 1291,
      "consu": 1292,
      "wor": 1293,
      "erc": 1294,
      "embryology": 1295,
      "thy": 1296,
      "mes": 1297,
      "eric": 1298,
      "after": 1299,
      "ving": 1300,
      "cr": 1301,
      "long": 1302,
      "tal": 1303,
      "plac": 1304,
      "29": 1305,
      "vas": 1306,
      "Health": 1307,
      "ature": 1308,
      "40": 1309,
      "stand": 1310,
      "normal": 1311,
      "process": 1312,
      "There": 1313,
      "cular": 1314,
      "].": 1315,
      "ists": 1316,
      "havi": 1317,
      "prim": 1318,
      "33": 1319,
      "itis": 1320,
      "ily": 1321,
      "subst": 1322,
      "ster": 1323,
      "about": 1324,
      "hol": 1325,
      "ants": 1326,
      "app": 1327,
      "ited": 1328,
      "part": 1329,
      "small": 1330,
      "contain": 1331,
      "individual": 1332,
      "ules": 1333,
      "oph": 1334,
      "ateg": 1335,
      "Ex": 1336,
      "ros": 1337,
      "show": 1338,
      "hyper": 1339,
      "randomized": 1340,
      "arm": 1341,
      "pri": 1342,
      "Ne": 1343,
      "medi": 1344,
      "kg": 1345,
      "ste": 1346,
      "sug": 1347,
      "condi": 1348,
      "ency": 1349,
      "my": 1350,
      "ities": 1351,
      "tro": 1352,
      "pressure": 1353,
      "rate": 1354,
      "FA": 1355,
      "publ": 1356,
      "lect": 1357,
      "occur": 1358,
      "These": 1359,
      "under": 1360,
      "day": 1361,
      "ice": 1362,
      "asal": 1363,
      "det": 1364,
      "data": 1365,
      "tics": 1366,
      "tissue": 1367,
      "ough": 1368,
      "well": 1369,
      "muscle": 1370,
      "ange": 1371,
      "bin": 1372,
      "less": 1373,
      "partic": 1374,
      "We": 1375,
      "ages": 1376,
      "allergic": 1377,
      "entif": 1378,
      "Ig": 1379,
      "arch": 1380,
      "sive": 1381,
      "term": 1382,
      "meas": 1383,
      "through": 1384,
      "ificant": 1385,
      "struc": 1386,
      "rh": 1387,
      "uce": 1388,
      "each": 1389,
      "sych": 1390,
      "infl": 1391,
      "imp": 1392,
      "ber": 1393,
      "actice": 1394,
      "Americ": 1395,
      "epi": 1396,
      "two": 1397,
      "CT": 1398,
      "numb": 1399,
      "aryn": 1400,
      "AN": 1401,
      "behavi": 1402,
      "fib": 1403,
      "contr": 1404,
      "membrane": 1405,
      "MD": 1406,
      "alu": 1407,
      "Pre": 1408,
      "sensi": 1409,
      "utr": 1410,
      "mph": 1411,
      "pop": 1412,
      "vent": 1413,
      "ness": 1414,
      "ings": 1415,
      "ital": 1416,
      "first": 1417,
      "35": 1418,
      "Not": 1419,
      "related": 1420,
      "ventions": 1421,
      "Sy": 1422,
      "hip": 1423,
      "rine": 1424,
      "control": 1425,
      "evalu": 1426,
      "years": 1427,
      "34": 1428,
      "IV": 1429,
      "Immun": 1430,
      "anaesthe": 1431,
      "Wh": 1432,
      "rec": 1433,
      "ications": 1434,
      "roid": 1435,
      "AS": 1436,
      "ample": 1437,
      "Ph": 1438,
      "amine": 1439,
      "ocial": 1440,
      "general": 1441,
      "factors": 1442,
      "bre": 1443,
      "acy": 1444,
      "research": 1445,
      "secre": 1446,
      "che": 1447,
      "ism": 1448,
      "thma": 1449,
      "ared": 1450,
      "IgE": 1451,
      "lower": 1452,
      "immun": 1453,
      "ailable": 1454,
      "epithe": 1455,
      "How": 1456,
      "using": 1457,
      "function": 1458,
      "tical": 1459,
      "drugs": 1460,
      "management": 1461,
      "Hy": 1462,
      "ological": 1463,
      "respon": 1464,
      "import": 1465,
      "icians": 1466,
      "gas": 1467,
      "vely": 1468,
      "imal": 1469,
      "type": 1470,
      "gland": 1471,
      "tit": 1472,
      "significant": 1473,
      "100": 1474,
      "gov": 1475,
      "iratory": 1476,
      "ential": 1477,
      "American": 1478,
      "las": 1479,
      "ournal": 1480,
      "aphy": 1481,
      "exerc": 1482,
      "mption": 1483,
      "chool": 1484,
      "IC": 1485,
      "kn": 1486,
      "typ": 1487,
      "cardi": 1488,
      "En": 1489,
      "fer": 1490,
      "found": 1491,
      "axis": 1492,
      "ider": 1493,
      "inte": 1494,
      "number": 1495,
      "aw": 1496,
      "rest": 1497,
      "ick": 1498,
      "comple": 1499,
      "minis": 1500,
      "requi": 1501,
      "ced": 1502,
      "place": 1503,
      "2009": 1504,
      "ression": 1505,
      "addi": 1506,
      "neuro": 1507,
      "Clinical": 1508,
      "ediatric": 1509,
      "sim": 1510,
      "Develop": 1511,
      "include": 1512,
      "omen": 1513,
      "large": 1514,
      "No": 1515,
      "mm": 1516,
      "life": 1517,
      "induc": 1518,
      "artic": 1519,
      "diet": 1520,
      "cap": 1521,
      "ties": 1522,
      "NS": 1523,
      "call": 1524,
      "stim": 1525,
      "layer": 1526,
      "OL": 1527,
      "then": 1528,
      "ark": 1529,
      "skin": 1530,
      "prote": 1531,
      "fam": 1532,
      "trans": 1533,
      "cohol": 1534,
      "enter": 1535,
      "rent": 1536,
      "interventions": 1537,
      "work": 1538,
      "support": 1539,
      "hel": 1540,
      "those": 1541,
      "uman": 1542,
      "different": 1543,
      "Se": 1544,
      "allergy": 1545,
      "21": 1546,
      "hal": 1547,
      "mic": 1548,
      "actions": 1549,
      "plas": 1550,
      "both": 1551,
      "primary": 1552,
      "head": 1553,
      "sible": 1554,
      "get": 1555,
      "chronic": 1556,
      "Me": 1557,
      "ache": 1558,
      "eff": 1559,
      "reported": 1560,
      "36": 1561,
      "If": 1562,
      "mul": 1563,
      "acute": 1564,
      "unct": 1565,
      "second": 1566,
      "lymph": 1567,
      "common": 1568,
      "2012": 1569,
      "level": 1570,
      "called": 1571,
      "..": 1572,
      "fr": 1573,
      "itive": 1574,
      "ished": 1575,
      "improve": 1576,
      "within": 1577,
      "iley": 1578,
      "AL": 1579,
      "oxy": 1580,
      "rhin": 1581,
      "tivity": 1582,
      "many": 1583,
      "fat": 1584,
      "sit": 1585,
      "information": 1586,
      "important": 1587,
      "CO": 1588,
      "result": 1589,
      "weight": 1590,
      "contin": 1591,
      "Sp": 1592,
      "aren": 1593,
      "therapies": 1594,
      "ually": 1595,
      "boo": 1596,
      "ry": 1597,
      "set": 1598,
      "att": 1599,
      "invol": 1600,
      "95": 1601,
      "brary": 1602,
      "gest": 1603,
      "consumption": 1604,
      "top": 1605,
      "hys": 1606,
      "Dis": 1607,
      "dose": 1608,
      "lat": 1609,
      "week": 1610,
      "ES": 1611,
      "active": 1612,
      "plementary": 1613,
      "60": 1614,
      "ocytes": 1615,
      "sing": 1616,
      "acter": 1617,
      "siz": 1618,
      "including": 1619,
      "2004": 1620,
      "increased": 1621,
      "ions": 1622,
      "ie": 1623,
      "osis": 1624,
      "aine": 1625,
      "oth": 1626,
      "ube": 1627,
      "char": 1628,
      "grow": 1629,
      "37": 1630,
      "cir": 1631,
      "However": 1632,
      "ml": 1633,
      "add": 1634,
      "tran": 1635,
      "log": 1636,
      "bloc": 1637,
      "identif": 1638,
      "foods": 1639,
      "organ": 1640,
      "early": 1641,
      "neural": 1642,
      "idered": 1643,
      "az": 1644,
      "ive": 1645,
      "mig": 1646,
      "ution": 1647,
      "ques": 1648,
      "ture": 1649,
      "atis": 1650,
      "Development": 1651,
      "drom": 1652,
      "ume": 1653,
      "nih": 1654,
      "uncture": 1655,
      "Dr": 1656,
      "renal": 1657,
      "AT": 1658,
      "CI": 1659,
      "ived": 1660,
      "tur": 1661,
      "abs": 1662,
      "diagnosis": 1663,
      "nc": 1664,
      "exp": 1665,
      "because": 1666,
      "initi": 1667,
      "acc": 1668,
      "adminis": 1669,
      "2008": 1670,
      "thyroid": 1671,
      "sed": 1672,
      "considered": 1673,
      "Uni": 1674,
      "disord": 1675,
      "laxis": 1676,
      "adoles": 1677,
      "oderm": 1678,
      "descri": 1679,
      "following": 1680,
      "MS": 1681,
      "levels": 1682,
      "iterature": 1683,
      "face": 1684,
      "among": 1685,
      "programs": 1686,
      "US": 1687,
      "ds": 1688,
      "educ": 1689,
      "illi": 1690,
      "radi": 1691,
      "38": 1692,
      "injec": 1693,
      "erate": 1694,
      "roph": 1695,
      "2000": 1696,
      "ization": 1697,
      "available": 1698,
      "nerve": 1699,
      "approach": 1700,
      "ues": 1701,
      "icacy": 1702,
      "Li": 1703,
      "mi": 1704,
      "Ep": 1705,
      "find": 1706,
      "ame": 1707,
      "versity": 1708,
      "2006": 1709,
      "reviews": 1710,
      "increase": 1711,
      "Ass": 1712,
      "tube": 1713,
      "stat": 1714,
      "Ther": 1715,
      "path": 1716,
      "upuncture": 1717,
      "formed": 1718,
      "combin": 1719,
      "side": 1720,
      "ances": 1721,
      "itation": 1722,
      "2013": 1723,
      "lic": 1724,
      "uit": 1725,
      "2015": 1726,
      "included": 1727,
      "Medicine": 1728,
      "appl": 1729,
      "oids": 1730,
      "Rec": 1731,
      "alcohol": 1732,
      "They": 1733,
      "Ar": 1734,
      "lm": 1735,
      "ices": 1736,
      "Gr": 1737,
      "due": 1738,
      "2005": 1739,
      "39": 1740,
      "BM": 1741,
      "lab": 1742,
      "sol": 1743,
      "verse": 1744,
      "provide": 1745,
      "EN": 1746,
      "Phys": 1747,
      "flow": 1748,
      "men": 1749,
      "effective": 1750,
      "Notes": 1751,
      "uch": 1752,
      "vere": 1753,
      "acid": 1754,
      "bias": 1755,
      "ior": 1756,
      "ically": 1757,
      "avoid": 1758,
      "31": 1759,
      "aining": 1760,
      "drome": 1761,
      "lik": 1762,
      "dro": 1763,
      "exercise": 1764,
      "Low": 1765,
      "fac": 1766,
      "often": 1767,
      "loc": 1768,
      "hypo": 1769,
      "history": 1770,
      "2007": 1771,
      "IS": 1772,
      "king": 1773,
      "pol": 1774,
      "utes": 1775,
      "search": 1776,
      "medical": 1777,
      "prevention": 1778,
      "practice": 1779,
      "rhinitis": 1780,
      "nlm": 1781,
      "omes": 1782,
      "ilar": 1783,
      "current": 1784,
      "period": 1785,
      "anaesthesia": 1786,
      "rap": 1787,
      "uses": 1788,
      "analyses": 1789,
      "elf": 1790,
      "indic": 1791,
      "recept": 1792,
      "dem": 1793,
      "jor": 1794,
      "ption": 1795,
      "ann": 1796,
      "sif": 1797,
      "doi": 1798,
      "decreas": 1799,
      "gery": 1800,
      "University": 1801,
      "80": 1802,
      "oxygen": 1803,
      "ncbi": 1804,
      "32": 1805,
      "AD": 1806,
      "bed": 1807,
      "vir": 1808,
      "bio": 1809,
      "you": 1810,
      "tration": 1811,
      "anges": 1812,
      "Em": 1813,
      "muc": 1814,
      "outcomes": 1815,
      "Au": 1816,
      "Tr": 1817,
      "example": 1818,
      "auth": 1819,
      "45": 1820,
      "Re": 1821,
      "nasal": 1822,
      "social": 1823,
      "rem": 1824,
      "benefit": 1825,
      "Col": 1826,
      "pat": 1827,
      "arr": 1828,
      "state": 1829,
      "medicine": 1830,
      "response": 1831,
      "cause": 1832,
      "assessment": 1833,
      "appear": 1834,
      "conditions": 1835,
      "aphylaxis": 1836,
      "Guidelines": 1837,
      "affec": 1838,
      "ardi": 1839,
      "proble": 1840,
      "commun": 1841,
      "women": 1842,
      "how": 1843,
      "ucle": 1844,
      "guidelines": 1845,
      "63": 1846,
      "Pain": 1847,
      "without": 1848,
      "where": 1849,
      "help": 1850,
      "anc": 1851,
      "heart": 1852,
      "compared": 1853,
      "migr": 1854,
      "ler": 1855,
      "substance": 1856,
      "must": 1857,
      "tub": 1858,
      "xi": 1859,
      "abl": 1860,
      "lium": 1861,
      "National": 1862,
      "OR": 1863,
      "had": 1864,
      "ton": 1865,
      "arter": 1866,
      "Rev": 1867,
      "induced": 1868,
      "dev": 1869,
      "mone": 1870,
      "pred": 1871,
      "emi": 1872,
      "derm": 1873,
      "cul": 1874,
      "sev": 1875,
      "new": 1876,
      "2017": 1877,
      "volume": 1878,
      "OA": 1879,
      "dom": 1880,
      "itor": 1881,
      "mental": 1882,
      "grative": 1883,
      "gluc": 1884,
      "types": 1885,
      "bone": 1886,
      "••": 1887,
      "forms": 1888,
      "intervention": 1889,
      "multi": 1890,
      "psych": 1891,
      "ologic": 1892,
      "mater": 1893,
      "reactions": 1894,
      "ening": 1895,
      "als": 1896,
      "change": 1897,
      "clusion": 1898,
      "IT": 1899,
      "2002": 1900,
      "month": 1901,
      "groups": 1902,
      "appropri": 1903,
      "measure": 1904,
      "Bi": 1905,
      "respiratory": 1906,
      "literature": 1907,
      "mit": 1908,
      "unt": 1909,
      "2010": 1910,
      "anaesthetic": 1911,
      "mid": 1912,
      "ood": 1913,
      "anes": 1914,
      "urs": 1915,
      "oss": 1916,
      "consider": 1917,
      "etal": 1918,
      "strateg": 1919,
      "does": 1920,
      "Immunol": 1921,
      "Man": 1922,
      "asthma": 1923,
      "Fig": 1924,
      "ON": 1925,
      "rele": 1926,
      "suff": 1927,
      "ports": 1928,
      "family": 1929,
      "Br": 1930,
      "MB": 1931,
      "tig": 1932,
      "connec": 1933,
      "positive": 1934,
      "Research": 1935,
      "ross": 1936,
      "65": 1937,
      "ID": 1938,
      "ey": 1939,
      "tem": 1940,
      "ental": 1941,
      "67": 1942,
      "animal": 1943,
      "erv": 1944,
      "agon": 1945,
      "outcome": 1946,
      "school": 1947,
      "oste": 1948,
      "fluid": 1949,
      "recommended": 1950,
      "recommendation": 1951,
      "syndrome": 1952,
      "vascular": 1953,
      "lex": 1954,
      "2014": 1955,
      "consist": 1956,
      "central": 1957,
      "Drug": 1958,
      "PR": 1959,
      "read": 1960,
      "48": 1961,
      "Ab": 1962,
      "severe": 1963,
      "astro": 1964,
      "continu": 1965,
      "last": 1966,
      "ery": 1967,
      "aking": 1968,
      "cop": 1969,
      "reli": 1970,
      "veol": 1971,
      "ected": 1972,
      "Bo": 1973,
      "ning": 1974,
      "though": 1975,
      "post": 1976,
      "allergen": 1977,
      "iting": 1978,
      "differenti": 1979,
      "depression": 1980,
      "efficacy": 1981,
      "Dep": 1982,
      "paren": 1983,
      "ense": 1984,
      "idemi": 1985,
      "ilk": 1986,
      "cept": 1987,
      "depend": 1988,
      "breath": 1989,
      "eter": 1990,
      "move": 1991,
      "glands": 1992,
      "sin": 1993,
      "gran": 1994,
      "suggest": 1995,
      "49": 1996,
      "higher": 1997,
      "Cl": 1998,
      "ised": 1999,
      "lead": 2000,
      "direct": 2001,
      "reduce": 2002,
      "lial": 2003,
      "rates": 2004,
      "anaphylaxis": 2005,
      "row": 2006,
      "hormone": 2007,
      "AP": 2008,
      "her": 2009,
      "lung": 2010,
      "tract": 2011,
      "bry": 2012,
      "possible": 2013,
      "ium": 2014,
      "major": 2015,
      "growth": 2016,
      "TH": 2017,
      "gener": 2018,
      "recommendations": 2019,
      "defin": 2020,
      "pul": 2021,
      "uideline": 2022,
      "potential": 2023,
      "Embry": 2024,
      "41": 2025,
      "ulin": 2026,
      "trib": 2027,
      "placebo": 2028,
      "Sur": 2029,
      "bal": 2030,
      "jo": 2031,
      "https": 2032,
      "Child": 2033,
      "likely": 2034,
      "AC": 2035,
      "ED": 2036,
      "Table": 2037,
      "ale": 2038,
      "influ": 2039,
      "lack": 2040,
      "spinal": 2041,
      "regard": 2042,
      "reduction": 2043,
      "75": 2044,
      "Lect": 2045,
      "frequ": 2046,
      "eng": 2047,
      "ently": 2048,
      "training": 2049,
      "ocrine": 2050,
      "viron": 2051,
      "70": 2052,
      "dos": 2053,
      "oga": 2054,
      "hib": 2055,
      "ward": 2056,
      "changes": 2057,
      "2011": 2058,
      "surface": 2059,
      "addition": 2060,
      "ai": 2061,
      "cord": 2062,
      "eks": 2063,
      "sis": 2064,
      "being": 2065,
      "ventil": 2066,
      "character": 2067,
      "76": 2068,
      "cyto": 2069,
      "value": 2070,
      "ternative": 2071,
      "del": 2072,
      "mend": 2073,
      "compar": 2074,
      "phy": 2075,
      "brain": 2076,
      "vities": 2077,
      "cat": 2078,
      "fi": 2079,
      "ection": 2080,
      "adults": 2081,
      "again": 2082,
      "serv": 2083,
      "echan": 2084,
      "protein": 2085,
      "Per": 2086,
      "sequ": 2087,
      "certain": 2088,
      "erences": 2089,
      "methods": 2090,
      "stimul": 2091,
      "adolesc": 2092,
      "hand": 2093,
      "led": 2094,
      "inj": 2095,
      "nee": 2096,
      "cour": 2097,
      "surgery": 2098,
      "embryo": 2099,
      "ediatrics": 2100,
      "ately": 2101,
      "examin": 2102,
      "posed": 2103,
      "armac": 2104,
      "connective": 2105,
      "Lecture": 2106,
      "42": 2107,
      "Ap": 2108,
      "equ": 2109,
      "mot": 2110,
      "alveol": 2111,
      "198": 2112,
      "Pati": 2113,
      "great": 2114,
      "nat": 2115,
      "eck": 2116,
      "aging": 2117,
      "Ins": 2118,
      "centr": 2119,
      "blind": 2120,
      "contains": 2121,
      "sensitivity": 2122,
      "Or": 2123,
      "lumb": 2124,
      "aded": 2125,
      "pheral": 2126,
      "At": 2127,
      "Effec": 2128,
      "three": 2129,
      "anxi": 2130,
      "them": 2131,
      "irth": 2132,
      "uble": 2133,
      "testing": 2134,
      "adi": 2135,
      "before": 2136,
      "chrane": 2137,
      "particular": 2138,
      "acupuncture": 2139,
      "geal": 2140,
      "population": 2141,
      "appropriate": 2142,
      "prevent": 2143,
      "iteria": 2144,
      "CL": 2145,
      "abil": 2146,
      "que": 2147,
      "size": 2148,
      "tech": 2149,
      "zation": 2150,
      "2016": 2151,
      "region": 2152,
      "single": 2153,
      "role": 2154,
      "IM": 2155,
      "smo": 2156,
      "vess": 2157,
      "ask": 2158,
      "tom": 2159,
      "stress": 2160,
      "etes": 2161,
      "short": 2162,
      "vision": 2163,
      "55": 2164,
      "Sup": 2165,
      "ula": 2166,
      "neur": 2167,
      "mediated": 2168,
      "findings": 2169,
      "land": 2170,
      "nucle": 2171,
      "2003": 2172,
      "clear": 2173,
      "design": 2174,
      "Online": 2175,
      "aryngeal": 2176,
      "epithelium": 2177,
      "similar": 2178,
      "books": 2179,
      "ound": 2180,
      "usually": 2181,
      "complementary": 2182,
      "ople": 2183,
      "particip": 2184,
      "Gen": 2185,
      "Le": 2186,
      "take": 2187,
      "opa": 2188,
      "disc": 2189,
      "tism": 2190,
      "intest": 2191,
      "97": 2192,
      "Be": 2193,
      "prog": 2194,
      "adj": 2195,
      "valence": 2196,
      "airway": 2197,
      "necess": 2198,
      "benefits": 2199,
      "ov": 2200,
      "allow": 2201,
      "esis": 2202,
      "off": 2203,
      "see": 2204,
      "ize": 2205,
      "known": 2206,
      "47": 2207,
      "Ke": 2208,
      "ancy": 2209,
      "erous": 2210,
      "orph": 2211,
      "adv": 2212,
      "System": 2213,
      "%)": 2214,
      "90": 2215,
      "bar": 2216,
      "fail": 2217,
      "stage": 2218,
      "ema": 2219,
      "Neuro": 2220,
      "several": 2221,
      "62": 2222,
      "Pl": 2223,
      "journal": 2224,
      "ule": 2225,
      "yo": 2226,
      "conduc": 2227,
      "urther": 2228,
      "ables": 2229,
      "abetes": 2230,
      "rid": 2231,
      "recent": 2232,
      "ater": 2233,
      "Prof": 2234,
      "cav": 2235,
      "made": 2236,
      "pec": 2237,
      "vap": 2238,
      "abol": 2239,
      "maintain": 2240,
      "Mc": 2241,
      "gue": 2242,
      "nutr": 2243,
      "zy": 2244,
      "ics": 2245,
      "hem": 2246,
      "position": 2247,
      "United": 2248,
      "demon": 2249,
      "authors": 2250,
      "suffici": 2251,
      "Nutr": 2252,
      "gly": 2253,
      "ian": 2254,
      "mem": 2255,
      "mass": 2256,
      "concentr": 2257,
      "adequ": 2258,
      "ET": 2259,
      "Journal": 2260,
      "Sch": 2261,
      "loss": 2262,
      "zed": 2263,
      "veness": 2264,
      "kele": 2265,
      "compon": 2266,
      "individuals": 2267,
      "breathing": 2268,
      "sper": 2269,
      "anch": 2270,
      "ision": 2271,
      "round": 2272,
      "whether": 2273,
      "Cochrane": 2274,
      "46": 2275,
      "Human": 2276,
      "cup": 2277,
      "self": 2278,
      "environ": 2279,
      "mesoderm": 2280,
      "months": 2281,
      "light": 2282,
      "rectal": 2283,
      "cgi": 2284,
      "ove": 2285,
      "tum": 2286,
      "ession": 2287,
      "actic": 2288,
      "oma": 2289,
      "atigue": 2290,
      "2001": 2291,
      "nerv": 2292,
      "Although": 2293,
      "criteria": 2294,
      "cm": 2295,
      "guid": 2296,
      "hr": 2297,
      "milk": 2298,
      "beg": 2299,
      "ially": 2300,
      "weeks": 2301,
      "prof": 2302,
      "embryonic": 2303,
      "ophil": 2304,
      "58": 2305,
      "vit": 2306,
      "clas": 2307,
      "Anaes": 2308,
      "tension": 2309,
      "peripheral": 2310,
      "shown": 2311,
      "block": 2312,
      "Psych": 2313,
      "prot": 2314,
      "local": 2315,
      "ortality": 2316,
      "vestig": 2317,
      "reporting": 2318,
      "fibers": 2319,
      "Instit": 2320,
      "anxiety": 2321,
      "43": 2322,
      "EP": 2323,
      "bility": 2324,
      "lear": 2325,
      "exper": 2326,
      "survi": 2327,
      "published": 2328,
      "otherapy": 2329,
      "intra": 2330,
      "ict": 2331,
      "statis": 2332,
      "ither": 2333,
      "Inter": 2334,
      "limb": 2335,
      "disorders": 2336,
      "cases": 2337,
      "mechan": 2338,
      "osp": 2339,
      "cost": 2340,
      "Car": 2341,
      "best": 2342,
      "mis": 2343,
      "sens": 2344,
      "onal": 2345,
      "tox": 2346,
      "tered": 2347,
      "people": 2348,
      "demonstr": 2349,
      "ST": 2350,
      "chrom": 2351,
      "adult": 2352,
      "agents": 2353,
      "clos": 2354,
      "establ": 2355,
      "spective": 2356,
      "aneous": 2357,
      "tissues": 2358,
      "iv": 2359,
      "pan": 2360,
      "tin": 2361,
      "summ": 2362,
      "hyp": 2363,
      "supplement": 2364,
      "standard": 2365,
      "cavity": 2366,
      ");": 2367,
      "ore": 2368,
      "rit": 2369,
      "omet": 2370,
      "osa": 2371,
      "amo": 2372,
      "person": 2373,
      "artment": 2374,
      "df": 2375,
      "dog": 2376,
      "la": 2377,
      "lying": 2378,
      "adem": 2379,
      "like": 2380,
      "ritis": 2381,
      "Is": 2382,
      "same": 2383,
      "tili": 2384,
      "ecto": 2385,
      "atively": 2386,
      "adverse": 2387,
      "000": 2388,
      "Figure": 2389,
      "Some": 2390,
      "fied": 2391,
      "som": 2392,
      "ills": 2393,
      "migraine": 2394,
      "Embryology": 2395,
      "classif": 2396,
      "Sh": 2397,
      "case": 2398,
      "knee": 2399,
      "tool": 2400,
      "even": 2401,
      "compl": 2402,
      "afety": 2403,
      "would": 2404,
      "structure": 2405,
      "against": 2406,
      "deli": 2407,
      "uk": 2408,
      "orb": 2409,
      "urane": 2410,
      "ationship": 2411,
      "factor": 2412,
      "Epidemi": 2413,
      "44": 2414,
      "Pa": 2415,
      "junc": 2416,
      "pen": 2417,
      "leg": 2418,
      "leep": 2419,
      "expos": 2420,
      "hydr": 2421,
      "acco": 2422,
      "ituit": 2423,
      "ili": 2424,
      "Inc": 2425,
      "incidence": 2426,
      "diagnostic": 2427,
      "ok": 2428,
      "yoga": 2429,
      "alternative": 2430,
      "ommend": 2431,
      "emp": 2432,
      "phase": 2433,
      "follic": 2434,
      "contrib": 2435,
      "know": 2436,
      "articles": 2437,
      "necessary": 2438,
      "79": 2439,
      "SH": 2440,
      "pean": 2441,
      "ociety": 2442,
      "Hyper": 2443,
      "Wiley": 2444,
      "hn": 2445,
      "wall": 2446,
      "xim": 2447,
      "inary": 2448,
      "orig": 2449,
      "chall": 2450,
      "emia": 2451,
      "amines": 2452,
      "ogni": 2453,
      "States": 2454,
      "tests": 2455,
      "ensive": 2456,
      "When": 2457,
      "cardiac": 2458,
      "setting": 2459,
      "gn": 2460,
      "atab": 2461,
      "proced": 2462,
      "plate": 2463,
      "Ann": 2464,
      "Movi": 2465,
      "hormon": 2466,
      "require": 2467,
      "CR": 2468,
      "Food": 2469,
      "Use": 2470,
      "eu": 2471,
      "fusion": 2472,
      "remain": 2473,
      "hair": 2474,
      "relax": 2475,
      "athy": 2476,
      "antihist": 2477,
      "days": 2478,
      "secondary": 2479,
      "Library": 2480,
      "bers": 2481,
      "tak": 2482,
      "eding": 2483,
      "abnormal": 2484,
      "Inte": 2485,
      "Medical": 2486,
      "inflam": 2487,
      "Class": 2488,
      "59": 2489,
      "JA": 2490,
      "Sim": 2491,
      "With": 2492,
      "birth": 2493,
      "ination": 2494,
      "lot": 2495,
      "measures": 2496,
      "glucose": 2497,
      "intestinal": 2498,
      "++": 2499,
      "ME": 2500,
      "fatigue": 2501,
      "strong": 2502,
      "sites": 2503,
      "Care": 2504,
      "RA": 2505,
      "down": 2506,
      "few": 2507,
      "free": 2508,
      "ences": 2509,
      "ofl": 2510,
      "rogen": 2511,
      "least": 2512,
      "experi": 2513,
      "pref": 2514,
      "pregn": 2515,
      "grade": 2516,
      "evaluation": 2517,
      "rapid": 2518,
      "CE": 2519,
      "pass": 2520,
      "yl": 2521,
      "total": 2522,
      "plasma": 2523,
      "address": 2524,
      "vessels": 2525,
      "71": 2526,
      "Met": 2527,
      "Sub": 2528,
      "To": 2529,
      "cin": 2530,
      "intake": 2531,
      "occurs": 2532,
      "Associ": 2533,
      "greater": 2534,
      "Treat": 2535,
      "sci": 2536,
      "site": 2537,
      "tiveness": 2538,
      "estim": 2539,
      "bral": 2540,
      "erence": 2541,
      "specif": 2542,
      "metabol": 2543,
      "limited": 2544,
      "receptor": 2545,
      "Department": 2546,
      "either": 2547,
      "nod": 2548,
      "연구": 2549,
      "trache": 2550,
      "mean": 2551,
      "special": 2552,
      "egg": 2553,
      "deter": 2554,
      "behavior": 2555,
      "uter": 2556,
      "wiley": 2557,
      "onlin": 2558,
      "ison": 2559,
      "what": 2560,
      "underg": 2561,
      "moderate": 2562,
      "III": 2563,
      "elibrary": 2564,
      "ogene": 2565,
      "onlinelibrary": 2566,
      "78": 2567,
      "PT": 2568,
      "duce": 2569,
      "fcgi": 2570,
      "tob": 2571,
      "reng": 2572,
      "Stud": 2573,
      "circ": 2574,
      "suc": 2575,
      "pers": 2576,
      "ends": 2577,
      "activities": 2578,
      "Head": 2579,
      "given": 2580,
      "products": 2581,
      "Practice": 2582,
      "problems": 2583,
      "56": 2584,
      "Jo": 2585,
      "scal": 2586,
      "reaction": 2587,
      "let": 2588,
      "cles": 2589,
      "Asthma": 2590,
      ".)": 2591,
      "Bas": 2592,
      "num": 2593,
      "pdf": 2594,
      "sac": 2595,
      "sco": 2596,
      "osomes": 2597,
      "duction": 2598,
      "relationship": 2599,
      "ventilation": 2600,
      "lumbar": 2601,
      "techni": 2602,
      "fil": 2603,
      "ious": 2604,
      "ones": 2605,
      "acts": 2606,
      "vey": 2607,
      "minutes": 2608,
      "Clinicians": 2609,
      "difference": 2610,
      "model": 2611,
      "Therap": 2612,
      "challen": 2613,
      "Evid": 2614,
      "foc": 2615,
      "range": 2616,
      "vered": 2617,
      "selec": 2618,
      "Cons": 2619,
      "standing": 2620,
      "exposure": 2621,
      "Av": 2622,
      "Hel": 2623,
      "New": 2624,
      "rati": 2625,
      "inhib": 2626,
      "thritis": 2627,
      "osin": 2628,
      "hours": 2629,
      "diffic": 2630,
      "double": 2631,
      "impact": 2632,
      "Physical": 2633,
      "72": 2634,
      "dx": 2635,
      "kin": 2636,
      "prevalence": 2637,
      "times": 2638,
      "described": 2639,
      "adolescents": 2640,
      "adequate": 2641,
      "fem": 2642,
      "amp": 2643,
      "genital": 2644,
      "values": 2645,
      "respond": 2646,
      "ogenesis": 2647,
      "substances": 2648,
      "injection": 2649,
      "ituitary": 2650,
      "RCT": 2651,
      "SJ": 2652,
      "make": 2653,
      "err": 2654,
      "enta": 2655,
      "phrine": 2656,
      "verte": 2657,
      "endo": 2658,
      "space": 2659,
      "point": 2660,
      "reduced": 2661,
      "88": 2662,
      "fetal": 2663,
      "’’": 2664,
      "while": 2665,
      "therefore": 2666,
      "integrative": 2667,
      "pattern": 2668,
      "Str": 2669,
      "Ty": 2670,
      "mortality": 2671,
      "‘‘": 2672,
      "plant": 2673,
      "epithelial": 2674,
      "61": 2675,
      "Down": 2676,
      "Sci": 2677,
      "aim": 2678,
      "doc": 2679,
      "harm": 2680,
      "human": 2681,
      "io": 2682,
      "conf": 2683,
      "ternal": 2684,
      "expl": 2685,
      "consists": 2686,
      "developed": 2687,
      "Academ": 2688,
      "mediate": 2689,
      "strategies": 2690,
      "release": 2691,
      "66": 2692,
      "relev": 2693,
      "iction": 2694,
      "perform": 2695,
      "hood": 2696,
      "received": 2697,
      "interest": 2698,
      "undergo": 2699,
      "DL": 2700,
      "ned": 2701,
      "nam": 2702,
      "orectal": 2703,
      "ray": 2704,
      "tures": 2705,
      "ortic": 2706,
      "opi": 2707,
      "modi": 2708,
      "neg": 2709,
      "ney": 2710,
      "become": 2711,
      "ways": 2712,
      "ediatr": 2713,
      "required": 2714,
      "Ris": 2715,
      "guideline": 2716,
      "ker": 2717,
      "ana": 2718,
      "above": 2719,
      "performed": 2720,
      "Intern": 2721,
      "liver": 2722,
      "functional": 2723,
      "Oncol": 2724,
      "micro": 2725,
      "education": 2726,
      "UN": 2727,
      "thal": 2728,
      "aries": 2729,
      "itt": 2730,
      "phal": 2731,
      "coun": 2732,
      "presence": 2733,
      "pression": 2734,
      "duct": 2735,
      "ategory": 2736,
      "09": 2737,
      "CD": 2738,
      "De": 2739,
      "Do": 2740,
      "RR": 2741,
      "bro": 2742,
      "item": 2743,
      "ides": 2744,
      "terms": 2745,
      "relatively": 2746,
      "increasing": 2747,
      "various": 2748,
      "versus": 2749,
      "secretion": 2750,
      "CO2": 2751,
      "Grade": 2752,
      "thor": 2753,
      "orth": 2754,
      "atin": 2755,
      "veget": 2756,
      "loaded": 2757,
      "could": 2758,
      "dietary": 2759,
      "situ": 2760,
      "did": 2761,
      "mar": 2762,
      "making": 2763,
      "sti": 2764,
      "espec": 2765,
      "endocrine": 2766,
      "venous": 2767,
      "objec": 2768,
      "Prevention": 2769,
      "identified": 2770,
      "status": 2771,
      "Recommend": 2772,
      "doses": 2773,
      "characteris": 2774,
      "Ca": 2775,
      "ION": 2776,
      "Pediatrics": 2777,
      "Sep": 2778,
      "ories": 2779,
      "toch": 2780,
      "diabetes": 2781,
      "atitis": 2782,
      "lia": 2783,
      "hydro": 2784,
      "lateral": 2785,
      "injections": 2786,
      "joint": 2787,
      "keletal": 2788,
      "57": 2789,
      "68": 2790,
      "Cent": 2791,
      "Other": 2792,
      "sen": 2793,
      "produce": 2794,
      "branch": 2795,
      "intub": 2796,
      "developing": 2797,
      "blas": 2798,
      "ocyte": 2799,
      "logy": 2800,
      "Movies": 2801,
      "Downloaded": 2802,
      "especially": 2803,
      "64": 2804,
      "sal": 2805,
      "ying": 2806,
      "inner": 2807,
      "ises": 2808,
      "ash": 2809,
      "exist": 2810,
      "tically": 2811,
      "bodies": 2812,
      "analges": 2813,
      "skills": 2814,
      "crest": 2815,
      "chemo": 2816,
      "sufficient": 2817,
      "nervous": 2818,
      "51": 2819,
      "69": 2820,
      "Ag": 2821,
      "mac": 2822,
      "sleep": 2823,
      "icial": 2824,
      "agen": 2825,
      "inephrine": 2826,
      "ock": 2827,
      "seg": 2828,
      "vious": 2829,
      "uality": 2830,
      "although": 2831,
      "death": 2832,
      "poten": 2833,
      "...": 2834,
      "involved": 2835,
      "01": 2836,
      "Society": 2837,
      "ft": 2838,
      "safety": 2839,
      "효과": 2840,
      "chi": 2841,
      "apter": 2842,
      "tee": 2843,
      "continuous": 2844,
      "oflurane": 2845,
      "Center": 2846,
      "mia": 2847,
      "edema": 2848,
      "arget": 2849,
      "chy": 2850,
      "prostate": 2851,
      "insulin": 2852,
      "determin": 2853,
      "Evidence": 2854,
      "Mon": 2855,
      "PA": 2856,
      "further": 2857,
      "list": 2858,
      "thetic": 2859,
      "eling": 2860,
      "ditional": 2861,
      "monary": 2862,
      "overall": 2863,
      "Common": 2864,
      "multiple": 2865,
      "natural": 2866,
      "Institute": 2867,
      "Cell": 2868,
      "Gro": 2869,
      "Mus": 2870,
      "O2": 2871,
      "nab": 2872,
      "uring": 2873,
      "medication": 2874,
      "layers": 2875,
      "behavioral": 2876,
      "combination": 2877,
      "regarding": 2878,
      "young": 2879,
      "concentration": 2880,
      "ratio": 2881,
      "Dec": 2882,
      "JM": 2883,
      "ably": 2884,
      "surround": 2885,
      "aily": 2886,
      "portion": 2887,
      "members": 2888,
      "hormones": 2889,
      "MR": 2890,
      "NA": 2891,
      "RE": 2892,
      "oper": 2893,
      "izing": 2894,
      "synthes": 2895,
      "needed": 2896,
      "complex": 2897,
      "article": 2898,
      "parents": 2899,
      "03": 2900,
      "One": 2901,
      "villi": 2902,
      "heter": 2903,
      "etc": 2904,
      "ressive": 2905,
      "open": 2906,
      "ended": 2907,
      "maternal": 2908,
      "MBER": 2909,
      "Study": 2910,
      "ae": 2911,
      "bv": 2912,
      "bel": 2913,
      "tation": 2914,
      "arthritis": 2915,
      "stimulation": 2916,
      "improvement": 2917,
      "nar": 2918,
      "net": 2919,
      "pub": 2920,
      "atures": 2921,
      "eld": 2922,
      "old": 2923,
      "ysis": 2924,
      "clinicians": 2925,
      "better": 2926,
      "healthy": 2927,
      "production": 2928,
      "limit": 2929,
      "reducing": 2930,
      "defined": 2931,
      "91": 2932,
      "Des": 2933,
      "bul": 2934,
      "put": 2935,
      "sa": 2936,
      "scre": 2937,
      "uff": 2938,
      "ink": 2939,
      "ective": 2940,
      "extr": 2941,
      "content": 2942,
      "cartil": 2943,
      "impair": 2944,
      "immune": 2945,
      "AB": 2946,
      "EM": 2947,
      "ole": 2948,
      "intr": 2949,
      "reports": 2950,
      "tial": 2951,
      "upper": 2952,
      "ergic": 2953,
      "treatments": 2954,
      "Keates": 2955,
      "toxic": 2956,
      "Helen": 2957,
      "aff": 2958,
      "laryn": 2959,
      "oto": 2960,
      "gene": 2961,
      "infants": 2962,
      "refer": 2963,
      "prior": 2964,
      "decrease": 2965,
      "CLIN": 2966,
      "120": 2967,
      "54": 2968,
      "Lim": 2969,
      "School": 2970,
      "Ter": 2971,
      "home": 2972,
      "pa": 2973,
      "tw": 2974,
      "pharmac": 2975,
      "meat": 2976,
      "cium": 2977,
      "ausea": 2978,
      "steroids": 2979,
      "ledge": 2980,
      "cut": 2981,
      "daily": 2982,
      "gastro": 2983,
      "iew": 2984,
      "tory": 2985,
      "thick": 2986,
      "ork": 2987,
      "issu": 2988,
      "ush": 2989,
      "ulations": 2990,
      "spray": 2991,
      "section": 2992,
      "duration": 2993,
      "Under": 2994,
      "PhD": 2995,
      "alveolar": 2996,
      "Academy": 2997,
      "chemotherapy": 2998,
      "98": 2999,
      "IL": 3000,
      "gu": 3001,
      "ik": 3002,
      "access": 3003,
      "until": 3004,
      "disability": 3005,
      "autism": 3006,
      "causes": 3007,
      "ician": 3008,
      "Access": 3009,
      "1999": 3010,
      "proteins": 3011,
      "ospital": 3012,
      "numerous": 3013,
      "CH": 3014,
      "Ear": 3015,
      "Quality": 3016,
      "bil": 3017,
      "ps": 3018,
      "right": 3019,
      "enc": 3020,
      "esity": 3021,
      "class": 3022,
      "means": 3023,
      "commonly": 3024,
      "inser": 3025,
      "needle": 3026,
      "Spec": 3027,
      "absor": 3028,
      "ogeneity": 3029,
      "05": 3030,
      "77": 3031,
      "TM": 3032,
      "mark": 3033,
      "ns": 3034,
      "ran": 3035,
      "ina": 3036,
      "reach": 3037,
      "toler": 3038,
      "aged": 3039,
      "ird": 3040,
      "ples": 3041,
      "contact": 3042,
      "allergens": 3043,
      "More": 3044,
      "AND": 3045,
      "relaxation": 3046,
      "pregnancy": 3047,
      "pal": 3048,
      "onom": 3049,
      "alone": 3050,
      "atop": 3051,
      "uture": 3052,
      "play": 3053,
      "basal": 3054,
      "flu": 3055,
      "symptom": 3056,
      "See": 3057,
      "initial": 3058,
      "ENT": 3059,
      "negative": 3060,
      "potension": 3061,
      "dors": 3062,
      "lor": 3063,
      "pi": 3064,
      "vom": 3065,
      "idney": 3066,
      "Stat": 3067,
      "provided": 3068,
      "itoring": 3069,
      "cytoplas": 3070,
      "Patients": 3071,
      "99": 3072,
      "Mod": 3073,
      "Publ": 3074,
      "ject": 3075,
      "now": 3076,
      "ring": 3077,
      "target": 3078,
      "atom": 3079,
      "streng": 3080,
      "uted": 3081,
      "useful": 3082,
      "tranasal": 3083,
      "administration": 3084,
      "applic": 3085,
      "community": 3086,
      "tribution": 3087,
      "Anaesthesia": 3088,
      "Treatment": 3089,
      "relevant": 3090,
      "Dise": 3091,
      "MP": 3092,
      "bur": 3093,
      "xed": 3094,
      "your": 3095,
      "astic": 3096,
      "icy": 3097,
      "ada": 3098,
      "rence": 3099,
      "epid": 3100,
      "couns": 3101,
      "sour": 3102,
      "increases": 3103,
      "headache": 3104,
      "facil": 3105,
      "vapor": 3106,
      "LE": 3107,
      "SE": 3108,
      "cology": 3109,
      "cogni": 3110,
      "his": 3111,
      "pap": 3112,
      "vs": 3113,
      "vors": 3114,
      "edic": 3115,
      "istance": 3116,
      "coll": 3117,
      "Contro": 3118,
      "lectr": 3119,
      "processes": 3120,
      "agonists": 3121,
      "course": 3122,
      "Over": 3123,
      "Rep": 3124,
      "bor": 3125,
      "investig": 3126,
      "ils": 3127,
      "chor": 3128,
      "adrenal": 3129,
      "produced": 3130,
      "cortis": 3131,
      "additional": 3132,
      "book": 3133,
      "summary": 3134,
      "atabase": 3135,
      "Risk": 3136,
      "53": 3137,
      "AID": 3138,
      "gang": 3139,
      "ovascular": 3140,
      "ram": 3141,
      "ints": 3142,
      "ator": 3143,
      "here": 3144,
      "plan": 3145,
      "mood": 3146,
      "ventional": 3147,
      "draw": 3148,
      "extrem": 3149,
      "disorder": 3150,
      "receptors": 3151,
      "granules": 3152,
      "smooth": 3153,
      "73": 3154,
      "Back": 3155,
      "dam": 3156,
      "har": 3157,
      "ired": 3158,
      "across": 3159,
      "concer": 3160,
      "blocks": 3161,
      "labor": 3162,
      "failure": 3163,
      "Group": 3164,
      "Af": 3165,
      "Blo": 3166,
      "HK": 3167,
      "sus": 3168,
      "tively": 3169,
      "asonal": 3170,
      "dium": 3171,
      "prob": 3172,
      "ains": 3173,
      "phen": 3174,
      "separ": 3175,
      "effectiveness": 3176,
      "154": 3177,
      "matory": 3178,
      "functions": 3179,
      "discus": 3180,
      "vitamin": 3181,
      "Ob": 3182,
      "Vol": 3183,
      "gel": 3184,
      "hort": 3185,
      "nausea": 3186,
      "conn": 3187,
      "external": 3188,
      "Thus": 3189,
      "includes": 3190,
      "vesic": 3191,
      "muscles": 3192,
      "however": 3193,
      "Review": 3194,
      "May": 3195,
      "mind": 3196,
      "enzy": 3197,
      "rop": 3198,
      "terior": 3199,
      "ocal": 3200,
      "Int": 3201,
      "bron": 3202,
      "four": 3203,
      "previous": 3204,
      "calcium": 3205,
      "antigen": 3206,
      "sensitive": 3207,
      "question": 3208,
      "Arch": 3209,
      "RCTs": 3210,
      "Pediatr": 3211,
      "aud": 3212,
      "fill": 3213,
      "ron": 3214,
      "Anes": 3215,
      "regular": 3216,
      "features": 3217,
      "every": 3218,
      "fiber": 3219,
      "examination": 3220,
      "High": 3221,
      "SC": 3222,
      "ah": 3223,
      "pituitary": 3224,
      "yle": 3225,
      "restr": 3226,
      "enchy": 3227,
      "isms": 3228,
      "asy": 3229,
      "tosis": 3230,
      "aden": 3231,
      "area": 3232,
      "agent": 3233,
      "come": 3234,
      "practic": 3235,
      "Most": 3236,
      "lectro": 3237,
      "ASD": 3238,
      "significantly": 3239,
      "complete": 3240,
      "administered": 3241,
      "avoidance": 3242,
      "sensory": 3243,
      "82": 3244,
      "tri": 3245,
      "perce": 3246,
      "seen": 3247,
      "cannab": 3248,
      "dist": 3249,
      "colorectal": 3250,
      "serum": 3251,
      "decision": 3252,
      "Resp": 3253,
      "transp": 3254,
      "radiation": 3255,
      "relief": 3256,
      "movement": 3257,
      "influence": 3258,
      "success": 3259,
      "Accessed": 3260,
      "Cal": 3261,
      "GY": 3262,
      "den": 3263,
      "ling": 3264,
      "mary": 3265,
      "tre": 3266,
      "에서": 3267,
      "eds": 3268,
      "ica": 3269,
      "cover": 3270,
      "ventive": 3271,
      "observ": 3272,
      "subjec": 3273,
      "assessed": 3274,
      "lected": 3275,
      "located": 3276,
      "components": 3277,
      "sperm": 3278,
      "demonstrated": 3279,
      "antihistamines": 3280,
      "techniques": 3281,
      "ittle": 3282,
      "52": 3283,
      "AM": 3284,
      "mation": 3285,
      "much": 3286,
      "vacc": 3287,
      "try": 3288,
      "obtain": 3289,
      "systems": 3290,
      "ensity": 3291,
      "outer": 3292,
      "lymphocytes": 3293,
      "Management": 3294,
      "tilization": 3295,
      "cartilage": 3296,
      "PD": 3297,
      "tives": 3298,
      "esoph": 3299,
      "ury": 3300,
      "ained": 3301,
      "cluded": 3302,
      "provides": 3303,
      "lasts": 3304,
      "problem": 3305,
      "consistent": 3306,
      "peanut": 3307,
      "facilit": 3308,
      "HKSJ": 3309,
      "Hear": 3310,
      "Ref": 3311,
      "fig": 3312,
      "pur": 3313,
      "asis": 3314,
      "hypotension": 3315,
      "poor": 3316,
      "Chapter": 3317,
      "shap": 3318,
      "onset": 3319,
      "steroid": 3320,
      "absence": 3321,
      "journals": 3322,
      "nutri": 3323,
      "massage": 3324,
      "knowledge": 3325,
      "difficult": 3326,
      "02": 3327,
      "116": 3328,
      "Gl": 3329,
      "pig": 3330,
      "sex": 3331,
      "ón": 3332,
      "ret": 3333,
      "online": 3334,
      "events": 3335,
      "medications": 3336,
      "link": 3337,
      "ible": 3338,
      "bohydr": 3339,
      "Anti": 3340,
      "Therefore": 3341,
      "later": 3342,
      "neurons": 3343,
      "dogs": 3344,
      "preferences": 3345,
      "vomiting": 3346,
      "],": 3347,
      "oarthritis": 3348,
      "ani": 3349,
      "promot": 3350,
      "epend": 3351,
      "via": 3352,
      "spir": 3353,
      "anged": 3354,
      "highly": 3355,
      "Neural": 3356,
      "behaviors": 3357,
      "procedures": 3358,
      "Cur": 3359,
      "Def": 3360,
      "Gastro": 3361,
      "Hist": 3362,
      "Mar": 3363,
      "NU": 3364,
      "OS": 3365,
      "Reg": 3366,
      "ave": 3367,
      "beli": 3368,
      "electr": 3369,
      "ses": 3370,
      "onad": 3371,
      "toward": 3372,
      "cannot": 3373,
      "cohort": 3374,
      "ught": 3375,
      "reason": 3376,
      "forming": 3377,
      "obesity": 3378,
      "order": 3379,
      "Chand": 3380,
      "regul": 3381,
      "sugges": 3382,
      "particularly": 3383,
      "Cre": 3384,
      "Ser": 3385,
      "ii": 3386,
      "tend": 3387,
      "unit": 3388,
      "implement": 3389,
      "ogn": 3390,
      "Anal": 3391,
      "derived": 3392,
      "good": 3393,
      "1998": 3394,
      "full": 3395,
      "improving": 3396,
      "publication": 3397,
      "biotics": 3398,
      "opaedic": 3399,
      "characteristics": 3400,
      "Pres": 3401,
      "dys": 3402,
      "third": 3403,
      "rout": 3404,
      "emerg": 3405,
      "opin": 3406,
      "mobility": 3407,
      "spe": 3408,
      "thesi": 3409,
      "served": 3410,
      "differences": 3411,
      "Diff": 3412,
      "placenta": 3413,
      "showed": 3414,
      "secretory": 3415,
      "raph": 3416,
      "delay": 3417,
      "amount": 3418,
      "female": 3419,
      "harms": 3420,
      "93": 3421,
      "Par": 3422,
      "Sm": 3423,
      "morph": 3424,
      "along": 3425,
      "fort": 3426,
      "2026": 3427,
      "canal": 3428,
      "rather": 3429,
      "Phil": 3430,
      "thyroidism": 3431,
      "material": 3432,
      "Integrative": 3433,
      "persist": 3434,
      "Blood": 3435,
      "BC": 3436,
      "DA": 3437,
      "SL": 3438,
      "VOL": 3439,
      "flex": 3440,
      "ier": 3441,
      "uits": 3442,
      "another": 3443,
      "emph": 3444,
      "proper": 3445,
      "eved": 3446,
      "meet": 3447,
      "ortex": 3448,
      "140": 3449,
      "deg": 3450,
      "mesenchy": 3451,
      "capill": 3452,
      "profession": 3453,
      "Type": 3454,
      "dorsal": 3455,
      "96": 3456,
      "Sec": 3457,
      "een": 3458,
      "little": 3459,
      "rules": 3460,
      "water": 3461,
      "zing": 3462,
      "hea": 3463,
      "cere": 3464,
      "aments": 3465,
      "organs": 3466,
      "variety": 3467,
      "conditional": 3468,
      "generally": 3469,
      "chem": 3470,
      "begin": 3471,
      "taken": 3472,
      "ASDs": 3473,
      "110": 3474,
      "Each": 3475,
      "Ma": 3476,
      "ull": 3477,
      "abdom": 3478,
      "orses": 3479,
      "music": 3480,
      "Program": 3481,
      "sizes": 3482,
      "combined": 3483,
      "mucosa": 3484,
      "cmd": 3485,
      "protective": 3486,
      "survivors": 3487,
      "Association": 3488,
      "vertebral": 3489,
      "applicable": 3490,
      "%.": 3491,
      "85": 3492,
      "Serv": 3493,
      "cas": 3494,
      "cross": 3495,
      "lum": 3496,
      "opathy": 3497,
      "grad": 3498,
      "colum": 3499,
      "Immunology": 3500,
      "attach": 3501,
      "strategy": 3502,
      "intubation": 3503,
      "atopic": 3504,
      "Cor": 3505,
      "Dev": 3506,
      "Euro": 3507,
      "Fr": 3508,
      "Lar": 3509,
      "nit": 3510,
      "oks": 3511,
      "thin": 3512,
      "ators": 3513,
      "atten": 3514,
      "accur": 3515,
      "ameter": 3516,
      "seasonal": 3517,
      "molec": 3518,
      "relative": 3519,
      "Stage": 3520,
      "mature": 3521,
      "structures": 3522,
      "Available": 3523,
      "still": 3524,
      "cutaneous": 3525,
      "84": 3526,
      "EL": 3527,
      "Shal": 3528,
      "pediatric": 3529,
      "vag": 3530,
      "zine": 3531,
      "́s": 3532,
      "ona": 3533,
      "around": 3534,
      "uma": 3535,
      "ograph": 3536,
      "pose": 3537,
      "matri": 3538,
      "Acute": 3539,
      "1996": 3540,
      "Complementary": 3541,
      "recei": 3542,
      "recogn": 3543,
      "appears": 3544,
      "tubules": 3545,
      "cytoplasm": 3546,
      "bind": 3547,
      "ld": 3548,
      "rare": 3549,
      "text": 3550,
      "intranasal": 3551,
      "repe": 3552,
      "ene": 3553,
      "ley": 3554,
      "left": 3555,
      "lob": 3556,
      "lifer": 3557,
      "Adoles": 3558,
      "NSAID": 3559,
      "biotic": 3560,
      "established": 3561,
      "After": 3562,
      "Chandra": 3563,
      "Shaleen": 3564,
      "Bar": 3565,
      "Lic": 3566,
      "Level": 3567,
      "Ox": 3568,
      "PC": 3569,
      "Po": 3570,
      "hum": 3571,
      "kidney": 3572,
      "sample": 3573,
      "close": 3574,
      "meditation": 3575,
      "analy": 3576,
      "nosis": 3577,
      "248": 3578,
      "simple": 3579,
      "fract": 3580,
      "participants": 3581,
      "conducted": 3582,
      "inflammatory": 3583,
      "tracheal": 3584,
      "fish": 3585,
      "just": 3586,
      "rich": 3587,
      "anterior": 3588,
      "atives": 3589,
      "ocortic": 3590,
      "carbohydr": 3591,
      "infusion": 3592,
      "Method": 3593,
      "topic": 3594,
      "identify": 3595,
      "BMJ": 3596,
      "Terms": 3597,
      "Control": 3598,
      "treated": 3599,
      "74": 3600,
      "might": 3601,
      "ori": 3602,
      "lif": 3603,
      "having": 3604,
      "basis": 3605,
      "oblast": 3606,
      "valu": 3607,
      "valid": 3608,
      "give": 3609,
      "Diet": 3610,
      "cran": 3611,
      "famil": 3612,
      "turn": 3613,
      "affect": 3614,
      "dermatitis": 3615,
      "ectoderm": 3616,
      "tobacco": 3617,
      "challenge": 3618,
      "vegetables": 3619,
      "heterogeneity": 3620,
      "gastrointestinal": 3621,
      "cortisol": 3622,
      "83": 3623,
      "Lab": 3624,
      "elev": 3625,
      "otic": 3626,
      "page": 3627,
      "ument": 3628,
      "emo": 3629,
      "prolifer": 3630,
      "motion": 3631,
      "epinephrine": 3632,
      "noted": 3633,
      "rise": 3634,
      "146": 3635,
      "others": 3636,
      "Diagnos": 3637,
      "ermine": 3638,
      "sugar": 3639,
      "detail": 3640,
      "record": 3641,
      "gastr": 3642,
      "ALL": 3643,
      "psychological": 3644,
      "animals": 3645,
      "Patient": 3646,
      "cognitive": 3647,
      "89": 3648,
      "UME": 3649,
      "base": 3650,
      "wr": 3651,
      "zo": 3652,
      "elim": 3653,
      "uration": 3654,
      "larger": 3655,
      "azep": 3656,
      "anesthesia": 3657,
      "eye": 3658,
      "differentiation": 3659,
      "Based": 3660,
      "error": 3661,
      "chorion": 3662,
      "NUMBER": 3663,
      "VOLUME": 3664,
      "86": 3665,
      "92": 3666,
      "ACT": 3667,
      "NC": 3668,
      "Park": 3669,
      "TR": 3670,
      "pil": 3671,
      "sem": 3672,
      "icit": 3673,
      "elan": 3674,
      "resistance": 3675,
      "imaging": 3676,
      "event": 3677,
      "composed": 3678,
      "cler": 3679,
      "tensive": 3680,
      "iciency": 3681,
      "gover": 3682,
      "reflex": 3683,
      "placental": 3684,
      "containing": 3685,
      "adolescent": 3686,
      "approaches": 3687,
      "sification": 3688,
      "device": 3689,
      "osteoarthritis": 3690,
      "physi": 3691,
      "eutic": 3692,
      "osinophil": 3693,
      "confidence": 3694,
      "below": 3695,
      "CM": 3696,
      "During": 3697,
      "Min": 3698,
      "OF": 3699,
      "cortex": 3700,
      "future": 3701,
      "sIgE": 3702,
      "van": 3703,
      "itors": 3704,
      "lege": 3705,
      "ters": 3706,
      "areas": 3707,
      "lip": 3708,
      "mediat": 3709,
      "upd": 3710,
      "manip": 3711,
      "interpre": 3712,
      "minim": 3713,
      "consult": 3714,
      "survey": 3715,
      "monitoring": 3716,
      "anging": 3717,
      "1997": 3718,
      "key": 3719,
      "developmental": 3720,
      "immunotherapy": 3721,
      "exercises": 3722,
      "poly": 3723,
      "specified": 3724,
      "items": 3725,
      "synthesis": 3726,
      "Heart": 3727,
      "matrix": 3728,
      "Fam": 3729,
      "Random": 3730,
      "UR": 3731,
      "bud": 3732,
      "berg": 3733,
      "gical": 3734,
      "alk": 3735,
      "aling": 3736,
      "ising": 3737,
      "uni": 3738,
      "conventional": 3739,
      "ode": 3740,
      "teach": 3741,
      "caud": 3742,
      "becomes": 3743,
      "evaluated": 3744,
      "neuropath": 3745,
      "applied": 3746,
      "generation": 3747,
      "Children": 3748,
      "nucleus": 3749,
      "orbid": 3750,
      "Gu": 3751,
      "Non": 3752,
      "SA": 3753,
      "dle": 3754,
      "electro": 3755,
      "inclusion": 3756,
      "thus": 3757,
      "ateral": 3758,
      "ditions": 3759,
      "resol": 3760,
      "ember": 3761,
      "ams": 3762,
      "ria": 3763,
      "unds": 3764,
      "cycle": 3765,
      "inson": 3766,
      "everity": 3767,
      "diseases": 3768,
      "placed": 3769,
      "sensiti": 3770,
      "pulmonary": 3771,
      "Nutrition": 3772,
      "supplements": 3773,
      "personal": 3774,
      "ximately": 3775,
      "John": 3776,
      "scores": 3777,
      "Rel": 3778,
      "slow": 3779,
      "accept": 3780,
      "ids": 3781,
      "ford": 3782,
      "agree": 3783,
      "index": 3784,
      "sodium": 3785,
      "activ": 3786,
      "intensity": 3787,
      "carb": 3788,
      "presented": 3789,
      "troph": 3790,
      "communication": 3791,
      "suggested": 3792,
      "damage": 3793,
      "112": 3794,
      "Oc": 3795,
      "SR": 3796,
      "lamin": 3797,
      "psy": 3798,
      "offer": 3799,
      "osph": 3800,
      "endomet": 3801,
      "distur": 3802,
      "ried": 3803,
      "possi": 3804,
      "colon": 3805,
      "tenance": 3806,
      "Acupuncture": 3807,
      "Prim": 3808,
      "placement": 3809,
      "condition": 3810,
      "entific": 3811,
      "Spine": 3812,
      "Disord": 3813,
      "indicate": 3814,
      "PRIS": 3815,
      "environment": 3816,
      "endothe": 3817,
      "objective": 3818,
      "pharmacologic": 3819,
      "strength": 3820,
      "opinion": 3821,
      "chemical": 3822,
      "87": 3823,
      "94": 3824,
      "Bec": 3825,
      "Database": 3826,
      "Hg": 3827,
      "Mul": 3828,
      "Pol": 3829,
      "dy": 3830,
      "wide": 3831,
      "insp": 3832,
      "onin": 3833,
      "prospective": 3834,
      "rium": 3835,
      "preh": 3836,
      "independ": 3837,
      "students": 3838,
      "ogenic": 3839,
      "longer": 3840,
      "determine": 3841,
      "Assess": 3842,
      "solution": 3843,
      "establish": 3844,
      "counseling": 3845,
      "%,": 3846,
      "Category": 3847,
      "Fe": 3848,
      "H1": 3849,
      "IO": 3850,
      "Nat": 3851,
      "PE": 3852,
      "ert": 3853,
      "asone": 3854,
      "older": 3855,
      "trig": 3856,
      "hout": 3857,
      "encephal": 3858,
      "107": 3859,
      "parts": 3860,
      "interval": 3861,
      "association": 3862,
      "randomised": 3863,
      "ventric": 3864,
      "location": 3865,
      "classification": 3866,
      "Meta": 3867,
      "collagen": 3868,
      "Creative": 3869,
      "From": 3870,
      "Guideline": 3871,
      "IA": 3872,
      "ont": 3873,
      "asp": 3874,
      "inger": 3875,
      "cep": 3876,
      "mov": 3877,
      "ending": 3878,
      "ional": 3879,
      "cancers": 3880,
      "intro": 3881,
      "Studies": 3882,
      "whole": 3883,
      "cription": 3884,
      "public": 3885,
      "What": 3886,
      "End": 3887,
      "Meas": 3888,
      "predict": 3889,
      "releas": 3890,
      "cope": 3891,
      "frequent": 3892,
      "Effects": 3893,
      "Systematic": 3894,
      "plantation": 3895,
      "Commons": 3896,
      "abdominal": 3897,
      "receiving": 3898,
      "License": 3899,
      "PRISMA": 3900,
      "Data": 3901,
      "Eg": 3902,
      "Lo": 3903,
      "Many": 3904,
      "QOL": 3905,
      "Ro": 3906,
      "SM": 3907,
      "sto": 3908,
      "ta": 3909,
      "inhal": 3910,
      "tocol": 3911,
      "itory": 3912,
      "agg": 3913,
      "essential": 3914,
      "hour": 3915,
      "male": 3916,
      "followed": 3917,
      "anaestheti": 3918,
      "fruits": 3919,
      "devices": 3920,
      "Abnormal": 3921,
      "component": 3922,
      "Epidemiology": 3923,
      "PP": 3924,
      "db": 3925,
      "mer": 3926,
      "nial": 3927,
      "table": 3928,
      "분석": 3929,
      "adren": 3930,
      "ocaine": 3931,
      "Inf": 3932,
      "context": 3933,
      "output": 3934,
      "150": 3935,
      "horse": 3936,
      "sedation": 3937,
      "clusions": 3938,
      "Epidemiol": 3939,
      "BO": 3940,
      "DE": 3941,
      "Educ": 3942,
      "ICA": 3943,
      "Sin": 3944,
      "TE": 3945,
      "severity": 3946,
      "anatom": 3947,
      "alities": 3948,
      "toms": 3949,
      "vement": 3950,
      "dix": 3951,
      "unk": 3952,
      "106": 3953,
      "prec": 3954,
      "lines": 3955,
      "systemic": 3956,
      "divided": 3957,
      "College": 3958,
      "balance": 3959,
      "expert": 3960,
      "scale": 3961,
      "thalam": 3962,
      "pilot": 3963,
      "118": 3964,
      "Bal": 3965,
      "Cat": 3966,
      "Fer": 3967,
      "I2": 3968,
      "NE": 3969,
      "Pers": 3970,
      "So": 3971,
      "horses": 3972,
      "ls": 3973,
      "retic": 3974,
      "recur": 3975,
      "usal": 3976,
      "trum": 3977,
      "abuse": 3978,
      "Intra": 3979,
      "version": 3980,
      "126": 3981,
      "observed": 3982,
      "Conditions": 3983,
      "ationale": 3984,
      "infant": 3985,
      "trauma": 3986,
      "Week": 3987,
      "decreased": 3988,
      "mucous": 3989,
      "origin": 3990,
      "experience": 3991,
      "undergoing": 3992,
      "opioid": 3993,
      "Early": 3994,
      "vaporiz": 3995,
      "Apr": 3996,
      "GH": 3997,
      "ele": 3998,
      "fund": 3999,
      "rin": 4000,
      "sc": 4001,
      "orts": 4002,
      "entre": 4003,
      "acs": 4004,
      "vein": 4005,
      "check": 4006,
      "resh": 4007,
      "adap": 4008,
      "ocardi": 4009,
      "ughout": 4010,
      "cellular": 4011,
      "manual": 4012,
      "cyst": 4013,
      "deep": 4014,
      "serious": 4015,
      "approximately": 4016,
      "vasive": 4017,
      "supporting": 4018,
      "describe": 4019,
      "movements": 4020,
      "directly": 4021,
      "injury": 4022,
      "adjust": 4023,
      "laryng": 4024,
      "susp": 4025,
      "degree": 4026,
      "AJ": 4027,
      "Pan": 4028,
      "ire": 4029,
      "jud": 4030,
      "rial": 4031,
      "swe": 4032,
      "reen": 4033,
      "isions": 4034,
      "too": 4035,
      "uscular": 4036,
      "econom": 4037,
      "termin": 4038,
      "abstr": 4039,
      "extra": 4040,
      "101": 4041,
      "covered": 4042,
      "entially": 4043,
      "inally": 4044,
      "infection": 4045,
      "sterior": 4046,
      "hypersensitivity": 4047,
      "Syn": 4048,
      "cardiovascular": 4049,
      "half": 4050,
      "statement": 4051,
      "arteries": 4052,
      "Books": 4053,
      "since": 4054,
      "frequency": 4055,
      "comparison": 4056,
      "Orth": 4057,
      "Plac": 4058,
      "nutrition": 4059,
      "JAMA": 4060,
      "cannabis": 4061,
      "Adolesc": 4062,
      "04": 4063,
      "300": 4064,
      "81": 4065,
      "Ben": 4066,
      "DM": 4067,
      "NH": 4068,
      "Radi": 4069,
      "da": 4070,
      "mask": 4071,
      "nose": 4072,
      "pp": 4073,
      "she": 4074,
      "ze": 4075,
      "inks": 4076,
      "enh": 4077,
      "enced": 4078,
      "theter": 4079,
      "itz": 4080,
      "extension": 4081,
      "lie": 4082,
      "media": 4083,
      "pra": 4084,
      "Note": 4085,
      "author": 4086,
      "culos": 4087,
      "dependent": 4088,
      "disturb": 4089,
      "Because": 4090,
      "Der": 4091,
      "Ed": 4092,
      "Evalu": 4093,
      "mild": 4094,
      "sw": 4095,
      "reco": 4096,
      "tif": 4097,
      "arily": 4098,
      "itud": 4099,
      "diag": 4100,
      "occup": 4101,
      "ogly": 4102,
      "therapeutic": 4103,
      "princ": 4104,
      "achi": 4105,
      "internal": 4106,
      "erennial": 4107,
      "ource": 4108,
      "Activity": 4109,
      "bleeding": 4110,
      "Item": 4111,
      "Moore": 4112,
      "membranes": 4113,
      "Engl": 4114,
      "agonist": 4115,
      "Support": 4116,
      "rapidly": 4117,
      "selection": 4118,
      "patterns": 4119,
      "practices": 4120,
      "routine": 4121,
      "carbohydrate": 4122,
      "families": 4123,
      "governed": 4124,
      "prehensive": 4125,
      "GR": 4126,
      "HR": 4127,
      "Oral": 4128,
      "bol": 4129,
      "cuff": 4130,
      "itions": 4131,
      "ket": 4132,
      "lig": 4133,
      "late": 4134,
      "pel": 4135,
      "vary": 4136,
      "ensure": 4137,
      "usc": 4138,
      "super": 4139,
      "amples": 4140,
      "percent": 4141,
      "formula": 4142,
      "grp": 4143,
      "ibility": 4144,
      "risks": 4145,
      "subsequ": 4146,
      "valve": 4147,
      "decisions": 4148,
      "choice": 4149,
      "throughout": 4150,
      "beneficial": 4151,
      "accord": 4152,
      "rophages": 4153,
      "cats": 4154,
      "General": 4155,
      "vapour": 4156,
      "obtained": 4157,
      "figgrp": 4158,
      "lifest": 4159,
      "Jul": 4160,
      "LMA": 4161,
      "Mes": 4162,
      "Sev": 4163,
      "Sum": 4164,
      "ming": 4165,
      "nia": 4166,
      "rup": 4167,
      "squ": 4168,
      "ened": 4169,
      "paral": 4170,
      "Statis": 4171,
      "axial": 4172,
      "Commit": 4173,
      "fulness": 4174,
      "stein": 4175,
      "understanding": 4176,
      "evaluate": 4177,
      "logic": 4178,
      "barri": 4179,
      "mechanisms": 4180,
      "broad": 4181,
      "Primary": 4182,
      "BR": 4183,
      "My": 4184,
      "Tim": 4185,
      "bit": 4186,
      "eas": 4187,
      "ered": 4188,
      "gonad": 4189,
      "hind": 4190,
      "nic": 4191,
      "ined": 4192,
      "tho": 4193,
      "arc": 4194,
      "aria": 4195,
      "osocial": 4196,
      "odes": 4197,
      "spine": 4198,
      "hypop": 4199,
      "preventive": 4200,
      "bound": 4201,
      "synap": 4202,
      "induction": 4203,
      "circle": 4204,
      "differentiate": 4205,
      "sinus": 4206,
      "motor": 4207,
      "document": 4208,
      "modified": 4209,
      "screening": 4210,
      "filled": 4211,
      "Respiratory": 4212,
      "cranial": 4213,
      "acsjournals": 4214,
      "AA": 4215,
      "Hor": 4216,
      "OM": 4217,
      "ju": 4218,
      "pair": 4219,
      "pite": 4220,
      "encour": 4221,
      "assive": 4222,
      "diameter": 4223,
      "adder": 4224,
      "otrop": 4225,
      "presents": 4226,
      "130": 4227,
      "relation": 4228,
      "oblasts": 4229,
      "caac": 4230,
      "series": 4231,
      "critical": 4232,
      "3322": 4233,
      "sterone": 4234,
      "ieve": 4235,
      "currently": 4236,
      "predic": 4237,
      "field": 4238,
      "Org": 4239,
      "Effect": 4240,
      "guide": 4241,
      "begins": 4242,
      "Therapy": 4243,
      "blasto": 4244,
      "limitations": 4245,
      "transport": 4246,
      "according": 4247,
      "Eur": 4248,
      "Eff": 4249,
      "MM": 4250,
      "dil": 4251,
      "fresh": 4252,
      "nut": 4253,
      "past": 4254,
      "pediatrics": 4255,
      "perennial": 4256,
      "remo": 4257,
      "anced": 4258,
      "lets": 4259,
      "division": 4260,
      "ements": 4261,
      "white": 4262,
      "estrogen": 4263,
      "Alcohol": 4264,
      "Compar": 4265,
      "substanti": 4266,
      "fibro": 4267,
      "Symp": 4268,
      "ASA": 4269,
      "integr": 4270,
      "temper": 4271,
      "designed": 4272,
      "delivered": 4273,
      "Increas": 4274,
      "contribute": 4275,
      "abnormalities": 4276,
      "Recommendation": 4277,
      "tochord": 4278,
      "determined": 4279,
      "subjects": 4280,
      "persistent": 4281,
      "recovery": 4282,
      ",”": 4283,
      "Del": 4284,
      "Mass": 4285,
      "Nor": 4286,
      "Text": 4287,
      "dic": 4288,
      "done": 4289,
      "gins": 4290,
      "mam": 4291,
      "uth": 4292,
      "wid": 4293,
      "ester": 4294,
      "ites": 4295,
      "comes": 4296,
      "ott": 4297,
      "Intro": 4298,
      "plications": 4299,
      "neum": 4300,
      "lining": 4301,
      "soy": 4302,
      "auto": 4303,
      "constit": 4304,
      "suppl": 4305,
      "improved": 4306,
      "aware": 4307,
      "lungs": 4308,
      "Neurology": 4309,
      "uterine": 4310,
      "issues": 4311,
      "restric": 4312,
      "esophag": 4313,
      "Committee": 4314,
      "York": 4315,
      "iop": 4316,
      "tent": 4317,
      "udi": 4318,
      "leuk": 4319,
      "step": 4320,
      "diazep": 4321,
      "ching": 4322,
      "constr": 4323,
      "confir": 4324,
      "ellular": 4325,
      "near": 4326,
      "sports": 4327,
      "uptake": 4328,
      "oneph": 4329,
      "antagonists": 4330,
      "surgical": 4331,
      "lesions": 4332,
      "Commun": 4333,
      "fully": 4334,
      "tility": 4335,
      "neck": 4336,
      "INS": 4337,
      "arynx": 4338,
      "break": 4339,
      "Hypo": 4340,
      "typically": 4341,
      "indicated": 4342,
      "Autism": 4343,
      "aired": 4344,
      "environmental": 4345,
      "statistical": 4346,
      "scientific": 4347,
      "focus": 4348,
      "referred": 4349,
      "History": 4350,
      "suggests": 4351,
      "Services": 4352,
      "thought": 4353,
      "Ber": 4354,
      "SPT": 4355,
      "bly": 4356,
      "mol": 4357,
      "na": 4358,
      "ximal": 4359,
      "energy": 4360,
      "alter": 4361,
      "unts": 4362,
      "confl": 4363,
      "105": 4364,
      "prepar": 4365,
      "lined": 4366,
      "clude": 4367,
      "caused": 4368,
      "nerves": 4369,
      "1994": 4370,
      "cardia": 4371,
      "NSW": 4372,
      "initially": 4373,
      "educational": 4374,
      "measured": 4375,
      "glyc": 4376,
      "strongly": 4377,
      "International": 4378,
      "enzymes": 4379,
      "capillaries": 4380,
      "Second": 4381,
      "fracture": 4382,
      "entrez": 4383,
      "Introduction": 4384,
      "119": 4385,
      "115": 4386,
      "CG": 4387,
      "Cardi": 4388,
      "Jun": 4389,
      "Two": 4390,
      "vic": 4391,
      "tid": 4392,
      "isure": 4393,
      "root": 4394,
      "direc": 4395,
      "ady": 4396,
      "ogr": 4397,
      "cow": 4398,
      "And": 4399,
      "carcin": 4400,
      "Additional": 4401,
      "Direct": 4402,
      "correct": 4403,
      "models": 4404,
      "populations": 4405,
      "completed": 4406,
      "tumour": 4407,
      "insertion": 4408,
      "Report": 4409,
      "ALLER": 4410,
      "Age": 4411,
      "Har": 4412,
      "Ly": 4413,
      "UK": 4414,
      "athetic": 4415,
      "cult": 4416,
      "eth": 4417,
      "habil": 4418,
      "pow": 4419,
      "rad": 4420,
      "atus": 4421,
      "isoflurane": 4422,
      "icits": 4423,
      "stre": 4424,
      "eline": 4425,
      "usual": 4426,
      "prop": 4427,
      "load": 4428,
      "immediate": 4429,
      "oglo": 4430,
      "Initi": 4431,
      "epis": 4432,
      "assist": 4433,
      "ifest": 4434,
      "actin": 4435,
      "iber": 4436,
      "ducts": 4437,
      "001": 4438,
      "calories": 4439,
      "childhood": 4440,
      "Results": 4441,
      "varian": 4442,
      "places": 4443,
      "publications": 4444,
      "While": 4445,
      "ICF": 4446,
      "survival": 4447,
      "costs": 4448,
      "existing": 4449,
      "Disease": 4450,
      "probably": 4451,
      "154248": 4452,
      "observational": 4453,
      "facilitate": 4454,
      "repeated": 4455,
      "15424863": 4456,
      "Body": 4457,
      "Cho": 4458,
      "Func": 4459,
      "Imp": 4460,
      "Out": 4461,
      "PM": 4462,
      "Pat": 4463,
      "TSH": 4464,
      "eat": 4465,
      "pus": 4466,
      "pep": 4467,
      "zona": 4468,
      "크기": 4469,
      "oncology": 4470,
      "acellular": 4471,
      "veins": 4472,
      "otal": 4473,
      "153": 4474,
      "points": 4475,
      "intended": 4476,
      "catheter": 4477,
      "1995": 4478,
      "deficiency": 4479,
      "lecture": 4480,
      "Web": 4481,
      "struction": 4482,
      "periods": 4483,
      "copy": 4484,
      "settings": 4485,
      "aimed": 4486,
      "sources": 4487,
      "Gastroenter": 4488,
      "Smith": 4489,
      "Phila": 4490,
      "chorionic": 4491,
      "lamina": 4492,
      "culoskeletal": 4493,
      "114": 4494,
      "DS": 4495,
      "Rem": 4496,
      "eosinophil": 4497,
      "stom": 4498,
      "session": 4499,
      "once": 4500,
      "astr": 4501,
      "oly": 4502,
      "diarr": 4503,
      "opo": 4504,
      "options": 4505,
      "excess": 4506,
      "rends": 4507,
      "plus": 4508,
      "1976": 4509,
      "actition": 4510,
      "pool": 4511,
      "posterior": 4512,
      "reviewed": 4513,
      "diagnosed": 4514,
      "signs": 4515,
      "responsible": 4516,
      "Nov": 4517,
      "resulting": 4518,
      "azine": 4519,
      "illion": 4520,
      "indicates": 4521,
      "affected": 4522,
      "leading": 4523,
      "ength": 4524,
      "safe": 4525,
      "Public": 4526,
      "epidural": 4527,
      "extremity": 4528,
      "promote": 4529,
      "judg": 4530,
      "lifestyle": 4531,
      "Fol": 4532,
      "Hospital": 4533,
      "T3": 4534,
      "Wor": 4535,
      "gap": 4536,
      "laryngeal": 4537,
      "nai": 4538,
      "pared": 4539,
      "insufficient": 4540,
      "atal": 4541,
      "acup": 4542,
      "stages": 4543,
      "consequ": 4544,
      "otroph": 4545,
      "quanti": 4546,
      "reasons": 4547,
      "achieve": 4548,
      "depress": 4549,
      "onses": 4550,
      "maintenance": 4551,
      "html": 4552,
      "CAM": 4553,
      "capac": 4554,
      "administer": 4555,
      "mix": 4556,
      "label": 4557,
      "continued": 4558,
      "inject": 4559,
      "neuron": 4560,
      "situations": 4561,
      "ALLERGY": 4562,
      "213": 4563,
      "But": 4564,
      "Dog": 4565,
      "DNA": 4566,
      "Ho": 4567,
      "LA": 4568,
      "Mor": 4569,
      "Rob": 4570,
      "Test": 4571,
      "UNSW": 4572,
      "nel": 4573,
      "oocyte": 4574,
      "sat": 4575,
      "scler": 4576,
      "represent": 4577,
      "icular": 4578,
      "room": 4579,
      "acqu": 4580,
      "elastic": 4581,
      "protocol": 4582,
      "selected": 4583,
      "Investig": 4584,
      "hyth": 4585,
      "stra": 4586,
      "Chr": 4587,
      "feel": 4588,
      "infer": 4589,
      "potentially": 4590,
      "shows": 4591,
      "diets": 4592,
      "lymphatic": 4593,
      "involves": 4594,
      "transi": 4595,
      "application": 4596,
      "appearance": 4597,
      "ancreas": 4598,
      "arterial": 4599,
      "alveoli": 4600,
      "Hypersensitivity": 4601,
      "selective": 4602,
      "Consider": 4603,
      "analgesia": 4604,
      "ushing": 4605,
      "mesenchyme": 4606,
      "Family": 4607,
      "Abnormalities": 4608,
      "117": 4609,
      "El": 4610,
      "Jan": 4611,
      "LH": 4612,
      "Lac": 4613,
      "PO": 4614,
      "Sho": 4615,
      "Skin": 4616,
      "fear": 4617,
      "ovarian": 4618,
      "pin": 4619,
      "sul": 4620,
      "있다": 4621,
      "always": 4622,
      "omy": 4623,
      "etus": 4624,
      "sures": 4625,
      "imental": 4626,
      "exchange": 4627,
      "essor": 4628,
      "104": 4629,
      "coord": 4630,
      "paratus": 4631,
      "stral": 4632,
      "pressed": 4633,
      "131": 4634,
      "ources": 4635,
      "angu": 4636,
      "ensus": 4637,
      "1992": 4638,
      "larg": 4639,
      "decid": 4640,
      "mainly": 4641,
      "hold": 4642,
      "requires": 4643,
      "questions": 4644,
      "BMC": 4645,
      "middle": 4646,
      "Appen": 4647,
      "complications": 4648,
      "delivery": 4649,
      "procedure": 4650,
      "score": 4651,
      "challenges": 4652,
      "ganglia": 4653,
      "Anesthesi": 4654,
      "towards": 4655,
      "caudal": 4656,
      "Appendix": 4657,
      "Breast": 4658,
      "Clar": 4659,
      "CIN": 4660,
      "Clas": 4661,
      "HA": 4662,
      "His": 4663,
      "PS": 4664,
      "Rh": 4665,
      "Vas": 4666,
      "Willi": 4667,
      "iosis": 4668,
      "length": 4669,
      "melan": 4670,
      "urom": 4671,
      "vel": 4672,
      "vul": 4673,
      "toc": 4674,
      "start": 4675,
      "adine": 4676,
      "loose": 4677,
      "aph": 4678,
      "plication": 4679,
      "upon": 4680,
      "haem": 4681,
      "graded": 4682,
      "aches": 4683,
      "156": 4684,
      "notochord": 4685,
      "feeding": 4686,
      "muscular": 4687,
      "bladder": 4688,
      "Division": 4689,
      "ING": 4690,
      "contrast": 4691,
      "pulse": 4692,
      "IMM": 4693,
      "intravenous": 4694,
      "circum": 4695,
      "macrophages": 4696,
      "Randomized": 4697,
      "Efficacy": 4698,
      "--": 4699,
      "DR": 4700,
      "Da": 4701,
      "Fetal": 4702,
      "Further": 4703,
      "Green": 4704,
      "MH": 4705,
      "Oto": 4706,
      "Sign": 4707,
      "category": 4708,
      "fri": 4709,
      "ga": 4710,
      "rig": 4711,
      "sof": 4712,
      "istic": 4713,
      "ulum": 4714,
      "cemia": 4715,
      "termed": 4716,
      "true": 4717,
      "loy": 4718,
      "agm": 4719,
      "ote": 4720,
      "Information": 4721,
      "epidemi": 4722,
      "gether": 4723,
      "aker": 4724,
      "125": 4725,
      "128": 4726,
      "basement": 4727,
      "goal": 4728,
      "Altern": 4729,
      "Prev": 4730,
      "ventral": 4731,
      "granul": 4732,
      "adolescence": 4733,
      "abilities": 4734,
      "panel": 4735,
      "legal": 4736,
      "keratin": 4737,
      "CD00": 4738,
      "tochond": 4739,
      "segment": 4740,
      "Moderate": 4741,
      "connect": 4742,
      "elevated": 4743,
      "vaporizer": 4744,
      "subsequent": 4745,
      "temperature": 4746,
      "IMMUN": 4747,
      "EBM": 4748,
      "Neck": 4749,
      "QU": 4750,
      "Ros": 4751,
      "hospital": 4752,
      "lac": 4753,
      "osteroids": 4754,
      "하는": 4755,
      "ames": 4756,
      "extract": 4757,
      "perfusion": 4758,
      "lies": 4759,
      "commit": 4760,
      "subacute": 4761,
      "differ": 4762,
      "163": 4763,
      "responses": 4764,
      "calcul": 4765,
      "clinically": 4766,
      "antibodies": 4767,
      "depth": 4768,
      "Add": 4769,
      "cortic": 4770,
      "corpus": 4771,
      "ermis": 4772,
      "longitud": 4773,
      "patch": 4774,
      "measurement": 4775,
      "Drugs": 4776,
      "leads": 4777,
      "spermat": 4778,
      "pancre": 4779,
      "classified": 4780,
      "athyroid": 4781,
      "takes": 4782,
      "metabolism": 4783,
      "relationships": 4784,
      "orthopaedic": 4785,
      "impairment": 4786,
      "European": 4787,
      "attention": 4788,
      "NSAIDs": 4789,
      "Parkinson": 4790,
      "encephalon": 4791,
      "Organ": 4792,
      "ography": 4793,
      "tochondria": 4794,
      "IMMUNOL": 4795,
      "GA": 4796,
      "Mac": 4797,
      "PH": 4798,
      "bag": 4799,
      "final": 4800,
      "fetus": 4801,
      "iod": 4802,
      "mast": 4803,
      "tman": 4804,
      "asc": 4805,
      "together": 4806,
      "studi": 4807,
      "urated": 4808,
      "ressure": 4809,
      "trunk": 4810,
      "optic": 4811,
      "umul": 4812,
      "uct": 4813,
      "103": 4814,
      "rib": 4815,
      "ologists": 4816,
      "ongue": 4817,
      "consci": 4818,
      "135": 4819,
      "160": 4820,
      "caemia": 4821,
      "Consu": 4822,
      "recommenda": 4823,
      "250": 4824,
      "Complement": 4825,
      "Adminis": 4826,
      "Adrenal": 4827,
      "histamine": 4828,
      "deficits": 4829,
      "needs": 4830,
      "myel": 4831,
      "added": 4832,
      "artery": 4833,
      "ready": 4834,
      "majority": 4835,
      "certainty": 4836,
      "examined": 4837,
      "statistically": 4838,
      "namic": 4839,
      "blasts": 4840,
      "tolerance": 4841,
      "reasonable": 4842,
      "Should": 4843,
      "500": 4844,
      "CS": 4845,
      "Of": 4846,
      "Pe": 4847,
      "Pub": 4848,
      "Path": 4849,
      "Ver": 4850,
      "aver": 4851,
      "cus": 4852,
      "national": 4853,
      "sl": 4854,
      "tel": 4855,
      "prov": 4856,
      "irrit": 4857,
      "exists": 4858,
      "phag": 4859,
      "core": 4860,
      "coch": 4861,
      "partial": 4862,
      "illus": 4863,
      "treating": 4864,
      "ground": 4865,
      "cessive": 4866,
      "reduces": 4867,
      "Exp": 4868,
      "ANAT": 4869,
      "evaluating": 4870,
      "lastic": 4871,
      "latter": 4872,
      "helpful": 4873,
      "readers": 4874,
      "frequently": 4875,
      "ectomy": 4876,
      "junctions": 4877,
      "ampson": 4878,
      "marrow": 4879,
      "manipulation": 4880,
      "barrier": 4881,
      "Chronic": 4882,
      "Air": 4883,
      "Bl": 4884,
      "Jos": 4885,
      "Mat": 4886,
      "None": 4887,
      "Pul": 4888,
      "Qu": 4889,
      "Reduc": 4890,
      "Scal": 4891,
      "Sampson": 4892,
      "Wil": 4893,
      "dense": 4894,
      "eve": 4895,
      "hot": 4896,
      "mag": 4897,
      "nol": 4898,
      "ply": 4899,
      "plot": 4900,
      "sch": 4901,
      "skeletal": 4902,
      "word": 4903,
      "으로": 4904,
      "timal": 4905,
      "ales": 4906,
      "ented": 4907,
      "dial": 4908,
      "probiotic": 4909,
      "implantation": 4910,
      "comprehensive": 4911,
      "opport": 4912,
      "exce": 4913,
      "ials": 4914,
      "Ind": 4915,
      "102": 4916,
      "108": 4917,
      "medic": 4918,
      "distribution": 4919,
      "outside": 4920,
      "manifest": 4921,
      "124": 4922,
      "incor": 4923,
      "152": 4924,
      "consensus": 4925,
      "spectrum": 4926,
      "maxim": 4927,
      "Canada": 4928,
      "iatric": 4929,
      "providing": 4930,
      "product": 4931,
      "functioning": 4932,
      "circul": 4933,
      "Trans": 4934,
      "psychosocial": 4935,
      "allows": 4936,
      "tumor": 4937,
      "thorac": 4938,
      "bronch": 4939,
      "widely": 4940,
      "anguage": 4941,
      "Go": 4942,
      "JP": 4943,
      "Literature": 4944,
      "North": 4945,
      "Sc": 4946,
      "Ste": 4947,
      "band": 4948,
      "bacter": 4949,
      "hen": 4950,
      "mers": 4951,
      "pH": 4952,
      "tor": 4953,
      "uary": 4954,
      "추정": 4955,
      "inated": 4956,
      "erty": 4957,
      "aring": 4958,
      "omas": 4959,
      "ulcer": 4960,
      "hepati": 4961,
      "ura": 4962,
      "resusc": 4963,
      "osal": 4964,
      "osome": 4965,
      "lys": 4966,
      "tries": 4967,
      "ament": 4968,
      "neph": 4969,
      "hyal": 4970,
      "ffective": 4971,
      "erent": 4972,
      "cytes": 4973,
      "entire": 4974,
      "regions": 4975,
      "respec": 4976,
      "longed": 4977,
      "acids": 4978,
      "hypothyroidism": 4979,
      "hypothalam": 4980,
      "arranged": 4981,
      "herbal": 4982,
      "participation": 4983,
      "guidance": 4984,
      "mission": 4985,
      "junction": 4986,
      "empir": 4987,
      "operative": 4988,
      "delayed": 4989,
      "ACTH": 4990,
      "adrenergic": 4991,
      "April": 4992,
      "Both": 4993,
      "Mic": 4994,
      "NI": 4995,
      "Na": 4996,
      "RM": 4997,
      "Total": 4998,
      "len": 4999,
      "nes": 5000,
      "ril": 5001,
      "ranging": 5002,
      "메타": 5003,
      "thecal": 5004,
      "stro": 5005,
      "idine": 5006,
      "olk": 5007,
      "traction": 5008,
      "odil": 5009,
      "phosph": 5010,
      "endoderm": 5011,
      "nea": 5012,
      "medial": 5013,
      "hysi": 5014,
      "efs": 5015,
      "mann": 5016,
      "acks": 5017,
      "carry": 5018,
      "supports": 5019,
      "infec": 5020,
      "Diabetes": 5021,
      "modalities": 5022,
      "whereas": 5023,
      "assessing": 5024,
      "traditional": 5025,
      "othane": 5026,
      "Surgery": 5027,
      "Professor": 5028,
      "account": 5029,
      "follicular": 5030,
      "inflammation": 5031,
      "specifically": 5032,
      "filaments": 5033,
      "surrounding": 5034,
      "shape": 5035,
      "emergency": 5036,
      "columnar": 5037,
      "molecules": 5038,
      "humans": 5039,
      "emotional": 5040,
      "oglobin": 5041,
      "pepti": 5042,
      "stomach": 5043,
      "pooled": 5044,
      "Classification": 5045,
      "conscious": 5046,
      "opportun": 5047,
      "113": 5048,
      "Bro": 5049,
      "Ir": 5050,
      "dop": 5051,
      "dbio": 5052,
      "gut": 5053,
      "ham": 5054,
      "sor": 5055,
      "sense": 5056,
      "μg": 5057,
      "real": 5058,
      "ats": 5059,
      "resid": 5060,
      "irst": 5061,
      "pharyngeal": 5062,
      "seek": 5063,
      "query": 5064,
      "weak": 5065,
      "lion": 5066,
      "metast": 5067,
      "180": 5068,
      "folds": 5069,
      "larsen": 5070,
      "oxid": 5071,
      "oxide": 5072,
      "providers": 5073,
      "Syst": 5074,
      "controls": 5075,
      "titud": 5076,
      "supported": 5077,
      "migrate": 5078,
      "mitochondria": 5079,
      "tributed": 5080,
      "Behavi": 5081,
      "learning": 5082,
      "amounts": 5083,
      "addressed": 5084,
      "Therapies": 5085,
      "Science": 5086,
      "piec": 5087,
      "Defin": 5088,
      "neuropathic": 5089,
      "sensitization": 5090,
      "ontaneous": 5091,
      "inferior": 5092,
      "Aug": 5093,
      "Cy": 5094,
      "DC": 5095,
      "Ec": 5096,
      "FE": 5097,
      "Fact": 5098,
      "GI": 5099,
      "Nurs": 5100,
      "San": 5101,
      "Sports": 5102,
      "Thy": 5103,
      "Vit": 5104,
      "fit": 5105,
      "five": 5106,
      "mand": 5107,
      "mak": 5108,
      "하여": 5109,
      "inst": 5110,
      "tol": 5111,
      "acillus": 5112,
      "strom": 5113,
      "dia": 5114,
      "advis": 5115,
      "sule": 5116,
      "superi": 5117,
      "apparatus": 5118,
      "six": 5119,
      "mobil": 5120,
      "mouth": 5121,
      "drain": 5122,
      "121": 5123,
      "minute": 5124,
      "baseline": 5125,
      "avail": 5126,
      "subgroup": 5127,
      "carried": 5128,
      "regis": 5129,
      "fold": 5130,
      "170": 5131,
      "1990": 5132,
      "111": 5133,
      "myocardi": 5134,
      "ICU": 5135,
      "topical": 5136,
      "ADE": 5137,
      "fibr": 5138,
      "regional": 5139,
      "maintained": 5140,
      "penet": 5141,
      "follicles": 5142,
      "CRC": 5143,
      "focused": 5144,
      "Recommendations": 5145,
      "Central": 5146,
      "MRI": 5147,
      "discussion": 5148,
      "vesicles": 5149,
      "vaccine": 5150,
      "NCER": 5151,
      "independent": 5152,
      "elements": 5153,
      "Evaluation": 5154,
      "Several": 5155,
      "esophagus": 5156,
      "diarrhea": 5157,
      "capacity": 5158,
      "studied": 5159,
      "superior": 5160,
      "Eo": 5161,
      "Ger": 5162,
      "GIT": 5163,
      "Mark": 5164,
      "cit": 5165,
      "dri": 5166,
      "ibr": 5167,
      "pine": 5168,
      "pack": 5169,
      "taking": 5170,
      "erb": 5171,
      "aces": 5172,
      "inges": 5173,
      "terol": 5174,
      "loid": 5175,
      "ago": 5176,
      "comfort": 5177,
      "ineffective": 5178,
      "sively": 5179,
      "distal": 5180,
      "169": 5181,
      "Chines": 5182,
      "Altman": 5183,
      "Adult": 5184,
      "variable": 5185,
      "CANCER": 5186,
      "gestion": 5187,
      "youth": 5188,
      "Austral": 5189,
      "closed": 5190,
      "follicle": 5191,
      "Similar": 5192,
      "연구들": 5193,
      "trachea": 5194,
      "circulation": 5195,
      "performance": 5196,
      "symptomatic": 5197,
      "pigment": 5198,
      "attached": 5199,
      "gastric": 5200,
      "elimination": 5201,
      "possibly": 5202,
      "anaesthetist": 5203,
      "power": 5204,
      "ANAT23": 5205,
      "José": 5206,
      "Scale": 5207,
      "Chinese": 5208,
      "CC": 5209,
      "DJ": 5210,
      "GF": 5211,
      "Ge": 5212,
      "Long": 5213,
      "Links": 5214,
      "MJ": 5215,
      "Mal": 5216,
      "T4": 5217,
      "bu": 5218,
      "categ": 5219,
      "fav": 5220,
      "fast": 5221,
      "language": 5222,
      "rd": 5223,
      "utili": 5224,
      "za": 5225,
      "ontal": 5226,
      "erve": 5227,
      "aste": 5228,
      "acent": 5229,
      "dition": 5230,
      "bever": 5231,
      "opath": 5232,
      "sept": 5233,
      "109": 5234,
      "basophil": 5235,
      "regression": 5236,
      "physicians": 5237,
      "physician": 5238,
      "keep": 5239,
      "variation": 5240,
      "smaller": 5241,
      "Pharmac": 5242,
      "secrete": 5243,
      "importance": 5244,
      "arent": 5245,
      "logical": 5246,
      "polar": 5247,
      "comparing": 5248,
      "Psychiat": 5249,
      "requirements": 5250,
      "ylazine": 5251,
      "issue": 5252,
      "Special": 5253,
      "Diseases": 5254,
      "flexion": 5255,
      "emphas": 5256,
      "psycho": 5257,
      "released": 5258,
      "suspected": 5259,
      "straight": 5260,
      "longitudinal": 5261,
      "Cr": 5262,
      "Hand": 5263,
      "KM": 5264,
      "Lond": 5265,
      "Sal": 5266,
      "YCE": 5267,
      "aque": 5268,
      "bow": 5269,
      "fin": 5270,
      "lactic": 5271,
      "million": 5272,
      "soci": 5273,
      "tail": 5274,
      "vant": 5275,
      "표본": 5276,
      "thors": 5277,
      "edback": 5278,
      "assu": 5279,
      "icate": 5280,
      "states": 5281,
      "omer": 5282,
      "ects": 5283,
      "ulty": 5284,
      "april": 5285,
      "optimal": 5286,
      "iration": 5287,
      "occas": 5288,
      "pha": 5289,
      "clus": 5290,
      "assign": 5291,
      "122": 5292,
      "aves": 5293,
      "develops": 5294,
      "malign": 5295,
      "variables": 5296,
      "Oncology": 5297,
      "INE": 5298,
      "thyro": 5299,
      "standardi": 5300,
      "primitive": 5301,
      "capsule": 5302,
      "glucocortic": 5303,
      "fixed": 5304,
      "Appro": 5305,
      "preventing": 5306,
      "remains": 5307,
      "Headache": 5308,
      "modif": 5309,
      "born": 5310,
      "perception": 5311,
      "References": 5312,
      "endothelial": 5313,
      "Measure": 5314,
      "BOYCE": 5315,
      "uromuscular": 5316,
      "friends": 5317,
      "ANAT2341": 5318,
      "BP": 5319,
      "Ba": 5320,
      "Gol": 5321,
      "La": 5322,
      "ML": 5323,
      "Ret": 5324,
      "datab": 5325,
      "fall": 5326,
      "gir": 5327,
      "lation": 5328,
      "lute": 5329,
      "acet": 5330,
      "ington": 5331,
      "leak": 5332,
      "ida": 5333,
      "urinary": 5334,
      "ets": 5335,
      "concept": 5336,
      "proma": 5337,
      "odal": 5338,
      "comb": 5339,
      "compo": 5340,
      "comorbid": 5341,
      "except": 5342,
      "tised": 5343,
      "123": 5344,
      "minimal": 5345,
      "148": 5346,
      "138": 5347,
      "139": 5348,
      "162": 5349,
      "causing": 5350,
      "matter": 5351,
      "1993": 5352,
      "blast": 5353,
      "follows": 5354,
      "produces": 5355,
      "improves": 5356,
      "hypertension": 5357,
      "understand": 5358,
      "detect": 5359,
      "OLO": 5360,
      "azol": 5361,
      "initiation": 5362,
      "likeli": 5363,
      "ablation": 5364,
      "tember": 5365,
      "ACS": 5366,
      "clearly": 5367,
      "summar": 5368,
      "employ": 5369,
      "original": 5370,
      "estimates": 5371,
      "uterus": 5372,
      "tobacillus": 5373,
      "September": 5374,
      "impairments": 5375,
      "encies": 5376,
      "absorption": 5377,
      "asticity": 5378,
      "connected": 5379,
      "mindfulness": 5380,
      "Methods": 5381,
      "proliferation": 5382,
      "Diagnosis": 5383,
      "Fertilization": 5384,
      "Persaud": 5385,
      "GRADE": 5386,
      "naire": 5387,
      "CINV": 5388,
      "Otolaryng": 5389,
      "respectively": 5390,
      "promazine": 5391,
      "Cushing": 5392,
      "Er": 5393,
      "Hol": 5394,
      "Kim": 5395,
      "Lumb": 5396,
      "Mid": 5397,
      "She": 5398,
      "Yoga": 5399,
      "ban": 5400,
      "far": 5401,
      "gases": 5402,
      "tree": 5403,
      "uz": 5404,
      "utions": 5405,
      "va": 5406,
      "zema": 5407,
      "invasive": 5408,
      "onia": 5409,
      "oric": 5410,
      "itone": 5411,
      "stri": 5412,
      "amni": 5413,
      "odds": 5414,
      "images": 5415,
      "interaction": 5416,
      "auer": 5417,
      "147": 5418,
      "reviewers": 5419,
      "167": 5420,
      "oidal": 5421,
      "Contin": 5422,
      "221": 5423,
      "visual": 5424,
      "olesterol": 5425,
      "stead": 5426,
      "myof": 5427,
      "ICS": 5428,
      "ATION": 5429,
      "expect": 5430,
      "Manual": 5431,
      "ervo": 5432,
      "dosing": 5433,
      "guided": 5434,
      "antihistamine": 5435,
      "estimate": 5436,
      "toxicity": 5437,
      "shaped": 5438,
      "morphine": 5439,
      "Post": 5440,
      "Education": 5441,
      "Summary": 5442,
      "conflic": 5443,
      "Lactobacillus": 5444,
      "London": 5445,
      ".”": 5446,
      "BG": 5447,
      "Esp": 5448,
      "First": 5449,
      "Sol": 5450,
      "bund": 5451,
      "cili": 5452,
      "pancreas": 5453,
      "vical": 5454,
      "wal": 5455,
      "want": 5456,
      "yolk": 5457,
      "aly": 5458,
      "almost": 5459,
      "orrh": 5460,
      "entation": 5461,
      "urine": 5462,
      "aphr": 5463,
      "Their": 5464,
      "excluded": 5465,
      "umin": 5466,
      "seud": 5467,
      "spasticity": 5468,
      "cervical": 5469,
      "izes": 5470,
      "izations": 5471,
      "pressures": 5472,
      "vide": 5473,
      "interven": 5474,
      "intermediate": 5475,
      "129": 5476,
      "ights": 5477,
      "inten": 5478,
      "angi": 5479,
      "beta": 5480,
      "serve": 5481,
      "Also": 5482,
      "extend": 5483,
      "Once": 5484,
      "Only": 5485,
      "lection": 5486,
      "Force": 5487,
      "refers": 5488,
      "Exerc": 5489,
      "rosis": 5490,
      "impul": 5491,
      "Authors": 5492,
      "tempor": 5493,
      "erythro": 5494,
      "THE": 5495,
      "characterized": 5496,
      "Lee": 5497,
      "adjacent": 5498,
      "conduct": 5499,
      "recently": 5500,
      "mechanism": 5501,
      "preference": 5502,
      "nodes": 5503,
      "Strong": 5504,
      "December": 5505,
      "histo": 5506,
      "ganglion": 5507,
      "auditory": 5508,
      "spiral": 5509,
      "professionals": 5510,
      "Programs": 5511,
      "zodiazep": 5512,
      "updated": 5513,
      "Community": 5514,
      "resuscitation": 5515,
      "EoE": 5516,
      "databases": 5517,
      "likelihood": 5518,
      ".’’": 5519,
      "CNS": 5520,
      "DG": 5521,
      "Ha": 5522,
      "Id": 5523,
      "Ket": 5524,
      "Lanc": 5525,
      "Main": 5526,
      "Mart": 5527,
      "Oste": 5528,
      "PG": 5529,
      "Pos": 5530,
      "Pediatric": 5531,
      "Rationale": 5532,
      "aap": 5533,
      "clo": 5534,
      "eating": 5535,
      "ij": 5536,
      "py": 5537,
      "sess": 5538,
      "scan": 5539,
      "tun": 5540,
      "tongue": 5541,
      "inadequate": 5542,
      "tious": 5543,
      "ermal": 5544,
      "orous": 5545,
      "ason": 5546,
      "acces": 5547,
      "olar": 5548,
      "force": 5549,
      "adhe": 5550,
      "opsy": 5551,
      "127": 5552,
      "minor": 5553,
      "pouch": 5554,
      "133": 5555,
      "subcutaneous": 5556,
      "dermal": 5557,
      "goals": 5558,
      "timodal": 5559,
      "Alternative": 5560,
      "approved": 5561,
      "gives": 5562,
      "reference": 5563,
      "headaches": 5564,
      "solid": 5565,
      "policy": 5566,
      "depends": 5567,
      "services": 5568,
      "opausal": 5569,
      "progressive": 5570,
      "ovulation": 5571,
      "somite": 5572,
      "estimated": 5573,
      "metabolic": 5574,
      "endotracheal": 5575,
      "MPH": 5576,
      "papill": 5577,
      "bronchi": 5578,
      "distress": 5579,
      "lumen": 5580,
      "ographic": 5581,
      "trophoblast": 5582,
      "ventricular": 5583,
      "terminal": 5584,
      "actitioners": 5585,
      "World": 5586,
      "Administration": 5587,
      "Hal": 5588,
      "JE": 5589,
      "Net": 5590,
      "OH": 5591,
      "Ren": 5592,
      "SP": 5593,
      "Source": 5594,
      "cub": 5595,
      "du": 5596,
      "ee": 5597,
      "flo": 5598,
      "ua": 5599,
      "uous": 5600,
      "ering": 5601,
      "enough": 5602,
      "already": 5603,
      "stabil": 5604,
      "elom": 5605,
      "elig": 5606,
      "users": 5607,
      "withdraw": 5608,
      "202": 5609,
      "excessive": 5610,
      "perative": 5611,
      "plann": 5612,
      "spontaneous": 5613,
      "plex": 5614,
      "basic": 5615,
      "biological": 5616,
      "clinician": 5617,
      "sympathetic": 5618,
      "ario": 5619,
      "Allergic": 5620,
      "Among": 5621,
      "producing": 5622,
      "ocytosis": 5623,
      "consume": 5624,
      "underlying": 5625,
      "ASRA": 5626,
      "articular": 5627,
      "involving": 5628,
      "menopausal": 5629,
      "depending": 5630,
      "generates": 5631,
      "smoking": 5632,
      "orphine": 5633,
      "technique": 5634,
      "surrounded": 5635,
      "network": 5636,
      "extracellular": 5637,
      "genetic": 5638,
      "vesicle": 5639,
      "electrical": 5640,
      "properties": 5641,
      "endometrium": 5642,
      "introduction": 5643,
      "blastocyst": 5644,
      "Comparison": 5645,
      "Symptoms": 5646,
      "acupressure": 5647,
      "aphragm": 5648,
      "Act": 5649,
      "By": 5650,
      "Bur": 5651,
      "DH": 5652,
      "GE": 5653,
      "Ko": 5654,
      "RS": 5655,
      "bing": 5656,
      "cau": 5657,
      "dence": 5658,
      "lens": 5659,
      "next": 5660,
      "oun": 5661,
      "passive": 5662,
      "varies": 5663,
      "방법": 5664,
      "iser": 5665,
      "entone": 5666,
      "acerb": 5667,
      "stance": 5668,
      "chann": 5669,
      "resources": 5670,
      "atified": 5671,
      "proportion": 5672,
      "probiotics": 5673,
      "agre": 5674,
      "erson": 5675,
      "manage": 5676,
      "137": 5677,
      "valent": 5678,
      "sham": 5679,
      "portive": 5680,
      "primarily": 5681,
      "contraction": 5682,
      "White": 5683,
      "typical": 5684,
      "micros": 5685,
      "fatty": 5686,
      "identifying": 5687,
      "mixed": 5688,
      "menstr": 5689,
      "facet": 5690,
      "advant": 5691,
      "demonstrate": 5692,
      "vertebr": 5693,
      "Typ": 5694,
      "pubmed": 5695,
      "ABLE": 5696,
      "Statement": 5697,
      "laboration": 5698,
      "Volume": 5699,
      "linked": 5700,
      "records": 5701,
      "Endocrine": 5702,
      "recurrence": 5703,
      "funding": 5704,
      "iopentone": 5705,
      "availability": 5706,
      "Psychiatry": 5707,
      "Measurement": 5708,
      "OLOGY": 5709,
      "ervoir": 5710,
      "Lancet": 5711,
      "FDA": 5712,
      "IAT": 5713,
      "JH": 5714,
      "JL": 5715,
      "TA": 5716,
      "Tur": 5717,
      "Top": 5718,
      "don": 5719,
      "never": 5720,
      "pon": 5721,
      "satis": 5722,
      "vil": 5723,
      "yi": 5724,
      "ía": 5725,
      "결과": 5726,
      "질성": 5727,
      "thigh": 5728,
      "offe": 5729,
      "attitud": 5730,
      "achy": 5731,
      "ilia": 5732,
      "ades": 5733,
      "appra": 5734,
      "compression": 5735,
      "extensive": 5736,
      "seem": 5737,
      "liqu": 5738,
      "disci": 5739,
      "whose": 5740,
      "tistic": 5741,
      "illness": 5742,
      "prick": 5743,
      "189": 5744,
      "axons": 5745,
      "ondro": 5746,
      "arian": 5747,
      "Allerg": 5748,
      "280": 5749,
      "Weight": 5750,
      "Prevalence": 5751,
      "epithelia": 5752,
      "fertilization": 5753,
      "transmit": 5754,
      "hysis": 5755,
      "USA": 5756,
      "acidosis": 5757,
      "ancial": 5758,
      "nuclei": 5759,
      "tumors": 5760,
      "Institutes": 5761,
      "mechanical": 5762,
      "compli": 5763,
      "iliac": 5764,
      "효과크기": 5765,
      "narrow": 5766,
      "source": 5767,
      "concerns": 5768,
      "previously": 5769,
      "nutrients": 5770,
      "implementation": 5771,
      "recognized": 5772,
      "binding": 5773,
      "Dietary": 5774,
      "inspired": 5775,
      "Balance": 5776,
      "scen": 5777,
      "economic": 5778,
      "achieved": 5779,
      "easily": 5780,
      "substantial": 5781,
      "%),": 5782,
      "3rd": 5783,
      "?.": 5784,
      "Bor": 5785,
      "Birth": 5786,
      "DB": 5787,
      "EV": 5788,
      "Hig": 5789,
      "JJ": 5790,
      "Ra": 5791,
      "Search": 5792,
      "Social": 5793,
      "Tech": 5794,
      "Task": 5795,
      "date": 5796,
      "gy": 5797,
      "nature": 5798,
      "wa": 5799,
      "retro": 5800,
      "recurrent": 5801,
      "retin": 5802,
      "ofol": 5803,
      "icul": 5804,
      "totic": 5805,
      "leave": 5806,
      "leisure": 5807,
      "static": 5808,
      "omin": 5809,
      "cholesterol": 5810,
      "eme": 5811,
      "osing": 5812,
      "lost": 5813,
      "amen": 5814,
      "amous": 5815,
      "excre": 5816,
      "ticaria": 5817,
      "pharynx": 5818,
      "bri": 5819,
      "wered": 5820,
      "meth": 5821,
      "contents": 5822,
      "precur": 5823,
      "dry": 5824,
      "species": 5825,
      "obstruction": 5826,
      "biopsy": 5827,
      "Check": 5828,
      "vesti": 5829,
      "recommends": 5830,
      "correspond": 5831,
      "receive": 5832,
      "consumed": 5833,
      "lecting": 5834,
      "anaesthetised": 5835,
      "ICD": 5836,
      "solub": 5837,
      "Bio": 5838,
      "Integr": 5839,
      "specialized": 5840,
      "counter": 5841,
      "Current": 5842,
      "beliefs": 5843,
      "Analysis": 5844,
      "Johnson": 5845,
      "IONS": 5846,
      "hypophysis": 5847,
      "onephric": 5848,
      "glycogen": 5849,
      "Lymph": 5850,
      "Rhin": 5851,
      "Williams": 5852,
      "incorpor": 5853,
      "Bri": 5854,
      "Dani": 5855,
      "Fi": 5856,
      "Fl": 5857,
      "FSH": 5858,
      "LM": 5859,
      "Lip": 5860,
      "Mad": 5861,
      "Ori": 5862,
      "Press": 5863,
      "Sou": 5864,
      "TABLE": 5865,
      "Wash": 5866,
      "oil": 5867,
      "rule": 5868,
      "tors": 5869,
      "ustr": 5870,
      "iness": 5871,
      "reve": 5872,
      "tip": 5873,
      "alpha": 5874,
      "atm": 5875,
      "iss": 5876,
      "assi": 5877,
      "actical": 5878,
      "ulla": 5879,
      "forward": 5880,
      "chest": 5881,
      "chlor": 5882,
      "osus": 5883,
      "sust": 5884,
      "abor": 5885,
      "imag": 5886,
      "utroph": 5887,
      "umes": 5888,
      "peritone": 5889,
      "hav": 5890,
      "ified": 5891,
      "1961": 5892,
      "158": 5893,
      "142": 5894,
      "intensive": 5895,
      "174": 5896,
      "nostic": 5897,
      "umbil": 5898,
      "shock": 5899,
      "232": 5900,
      "Diana": 5901,
      "extent": 5902,
      "MAC": 5903,
      "processed": 5904,
      "numbers": 5905,
      "fats": 5906,
      "involvement": 5907,
      "fluids": 5908,
      "reliability": 5909,
      "parent": 5910,
      "rown": 5911,
      "chromosomes": 5912,
      "supplementation": 5913,
      "Consult": 5914,
      "Avoid": 5915,
      "harmful": 5916,
      "explicit": 5917,
      "segmental": 5918,
      "gelTM": 5919,
      "nutritional": 5920,
      "interpretation": 5921,
      "Policy": 5922,
      "Orthopaedic": 5923,
      "princi": 5924,
      "ketamine": 5925,
      "tidal": 5926,
      "Clarke": 5927,
      "메타분석": 5928,
      "girls": 5929,
      "discipl": 5930,
      ")]": 5931,
      "AV": 5932,
      "Cap": 5933,
      "DI": 5934,
      "GG": 5935,
      "Liber": 5936,
      "Mig": 5937,
      "Ques": 5938,
      "RJ": 5939,
      "SB": 5940,
      "Sk": 5941,
      "Sw": 5942,
      "SAD": 5943,
      "aer": 5944,
      "run": 5945,
      "xia": 5946,
      "ini": 5947,
      "reproduc": 5948,
      "anol": 5949,
      "aldo": 5950,
      "touch": 5951,
      "itus": 5952,
      "leen": 5953,
      "elves": 5954,
      "suit": 5955,
      "amet": 5956,
      "compart": 5957,
      "utonom": 5958,
      "option": 5959,
      "opening": 5960,
      "Individual": 5961,
      "brady": 5962,
      "note": 5963,
      "prefer": 5964,
      "sions": 5965,
      "peer": 5966,
      "144": 5967,
      "149": 5968,
      "136": 5969,
      "avage": 5970,
      "center": 5971,
      "highest": 5972,
      "Cont": 5973,
      "171": 5974,
      "musculoskeletal": 5975,
      "requency": 5976,
      "ARY": 5977,
      "portions": 5978,
      "tested": 5979,
      "methodology": 5980,
      "trolled": 5981,
      "continues": 5982,
      "charge": 5983,
      "Developmental": 5984,
      "avoided": 5985,
      "stimulates": 5986,
      "vessel": 5987,
      "nuclear": 5988,
      "hemical": 5989,
      "protection": 5990,
      "+++": 5991,
      "opioids": 5992,
      "analgesic": 5993,
      "deaths": 5994,
      "Understanding": 5995,
      "epidermis": 5996,
      "laboratory": 5997,
      "Reviews": 5998,
      "Oxy": 5999,
      "cepts": 6000,
      "disturbances": 6001,
      "percentage": 6002,
      "Massage": 6003,
      "average": 6004,
      "Golgi": 6005,
      "AAP": 6006,
      "DO": 6007,
      "Es": 6008,
      "Found": 6009,
      "Hill": 6010,
      "Kn": 6011,
      "QTM": 6012,
      "Sa": 6013,
      "Section": 6014,
      "Tox": 6015,
      "Women": 6016,
      "dust": 6017,
      "gin": 6018,
      "hed": 6019,
      "mb": 6020,
      "pneum": 6021,
      "zer": 6022,
      "onium": 6023,
      "alb": 6024,
      "tomy": 6025,
      "stances": 6026,
      "eczema": 6027,
      "veter": 6028,
      "veill": 6029,
      "reservoir": 6030,
      "conver": 6031,
      "empt": 6032,
      "proximal": 6033,
      "evol": 6034,
      "uting": 6035,
      "exacerb": 6036,
      "otonin": 6037,
      "coelom": 6038,
      "formul": 6039,
      "acting": 6040,
      "stratified": 6041,
      "possess": 6042,
      "intermit": 6043,
      "134": 6044,
      "tymp": 6045,
      "Stand": 6046,
      "maturation": 6047,
      "Contribution": 6048,
      "depressive": 6049,
      "choices": 6050,
      "compet": 6051,
      "infil": 6052,
      "anyl": 6053,
      "presentation": 6054,
      "apply": 6055,
      "median": 6056,
      "awa": 6057,
      "expected": 6058,
      "avoiding": 6059,
      "mucosal": 6060,
      "techn": 6061,
      "advice": 6062,
      "Simon": 6063,
      "Limit": 6064,
      "Underlying": 6065,
      "professional": 6066,
      "Major": 6067,
      "Large": 6068,
      "rarely": 6069,
      "Panel": 6070,
      "nuts": 6071,
      "estrogens": 6072,
      "consequences": 6073,
      "Anesthesiology": 6074,
      "amniotic": 6075,
      "orrhage": 6076,
      "Identif": 6077,
      "cuboidal": 6078,
      "Higgins": 6079,
      "Gi": 6080,
      "Hart": 6081,
      "Mi": 6082,
      "Scre": 6083,
      "Val": 6084,
      "Yes": 6085,
      "oedema": 6086,
      "rhyth": 6087,
      "평균": 6088,
      "한다": 6089,
      "inform": 6090,
      "thr": 6091,
      "recom": 6092,
      "tia": 6093,
      "isol": 6094,
      "asm": 6095,
      "entanyl": 6096,
      "itre": 6097,
      "heum": 6098,
      "prolonged": 6099,
      "204": 6100,
      "ella": 6101,
      "meal": 6102,
      "parathyroid": 6103,
      "thesis": 6104,
      "interactions": 6105,
      "ongo": 6106,
      "mineral": 6107,
      "Another": 6108,
      "State": 6109,
      "Stress": 6110,
      "itself": 6111,
      "regulation": 6112,
      "colour": 6113,
      "ards": 6114,
      "175": 6115,
      "177": 6116,
      "overweight": 6117,
      "Cohen": 6118,
      "thyl": 6119,
      "week1": 6120,
      "faces": 6121,
      "migration": 6122,
      "domized": 6123,
      "consisting": 6124,
      "EDIAT": 6125,
      "equal": 6126,
      "allowing": 6127,
      "concentrations": 6128,
      "hydroly": 6129,
      "Muscle": 6130,
      "twice": 6131,
      "market": 6132,
      "Overview": 6133,
      "separate": 6134,
      "intervals": 6135,
      "occupational": 6136,
      "removed": 6137,
      "June": 6138,
      "carcinoma": 6139,
      "Director": 6140,
      "Investigation": 6141,
      "thoracic": 6142,
      "piece": 6143,
      "Network": 6144,
      "Liberati": 6145,
      "1st": 6146,
      "BA": 6147,
      "LO": 6148,
      "OD": 6149,
      "PEDIAT": 6150,
      "RICS": 6151,
      "SD": 6152,
      "Up": 6153,
      "cred": 6154,
      "ea": 6155,
      "hom": 6156,
      "ito": 6157,
      "kines": 6158,
      "mut": 6159,
      "pseud": 6160,
      "yst": 6161,
      "zone": 6162,
      "inking": 6163,
      "insuffici": 6164,
      "threat": 6165,
      "tium": 6166,
      "enn": 6167,
      "orr": 6168,
      "diaphragm": 6169,
      "osmol": 6170,
      "bey": 6171,
      "perme": 6172,
      "web": 6173,
      "spaces": 6174,
      "earli": 6175,
      "pars": 6176,
      "194": 6177,
      "197": 6178,
      "ageal": 6179,
      "iesis": 6180,
      "151": 6181,
      "audi": 6182,
      "143": 6183,
      "165": 6184,
      "serial": 6185,
      "303": 6186,
      "variance": 6187,
      "Exper": 6188,
      "imply": 6189,
      "contrain": 6190,
      "Developing": 6191,
      "fram": 6192,
      "continue": 6193,
      "attle": 6194,
      "attempt": 6195,
      "20171961": 6196,
      "sequence": 6197,
      "stimulate": 6198,
      "1988": 6199,
      "lands": 6200,
      "Interventions": 6201,
      "chromosome": 6202,
      "closure": 6203,
      "ivocal": 6204,
      "Incidence": 6205,
      "experienced": 6206,
      "node": 6207,
      "inhibitors": 6208,
      "RRMS": 6209,
      "objectives": 6210,
      "Centre": 6211,
      "saline": 6212,
      "Limb": 6213,
      "lingual": 6214,
      "covering": 6215,
      "1162": 6216,
      "lobulin": 6217,
      "validity": 6218,
      "squamous": 6219,
      "Increased": 6220,
      "Impact": 6221,
      "sessions": 6222,
      "hepatic": 6223,
      "standardized": 6224,
      "Daniel": 6225,
      "Washington": 6226,
      "Migr": 6227,
      "veillance": 6228,
      "ongoing": 6229,
      "PEDIATRICS": 6230,
      "2O": 6231,
      "400": 6232,
      "Bloc": 6233,
      "FR": 6234,
      "Mel": 6235,
      "Pot": 6236,
      "Psy": 6237,
      "Pituitary": 6238,
      "Su": 6239,
      "TS": 6240,
      "West": 6241,
      "You": 6242,
      "e1": 6243,
      "eti": 6244,
      "fever": 6245,
      "gain": 6246,
      "gia": 6247,
      "gquery": 6248,
      "hab": 6249,
      "itool": 6250,
      "vents": 6251,
      "zi": 6252,
      "경우": 6253,
      "이질성": 6254,
      "recre": 6255,
      "timat": 6256,
      "edition": 6257,
      "aster": 6258,
      "roiliac": 6259,
      "toe": 6260,
      "tomid": 6261,
      "toperative": 6262,
      "aci": 6263,
      "healing": 6264,
      "dig": 6265,
      "proven": 6266,
      "trate": 6267,
      "evi": 6268,
      "sia": 6269,
      "elling": 6270,
      "seiz": 6271,
      "mother": 6272,
      "draf": 6273,
      "boys": 6274,
      "159": 6275,
      "subject": 6276,
      "164": 6277,
      "respect": 6278,
      "axon": 6279,
      "supply": 6280,
      "despite": 6281,
      "factory": 6282,
      "Molec": 6283,
      "benzodiazep": 6284,
      "modality": 6285,
      "lective": 6286,
      "opharyngeal": 6287,
      "medium": 6288,
      "secreted": 6289,
      "neurology": 6290,
      "mmHg": 6291,
      "fruit": 6292,
      "Disability": 6293,
      "anesthe": 6294,
      "cording": 6295,
      "progress": 6296,
      "zyg": 6297,
      "keleton": 6298,
      "blockers": 6299,
      "experimental": 6300,
      "toolbar": 6301,
      "meaning": 6302,
      "characteristic": 6303,
      "encing": 6304,
      "antigens": 6305,
      "Gluc": 6306,
      "Differen": 6307,
      "lipid": 6308,
      "Disorders": 6309,
      "reticular": 6310,
      "Placenta": 6311,
      "bolus": 6312,
      "Mesoderm": 6313,
      "Normal": 6314,
      "Gastroenterol": 6315,
      "David": 6316,
      "Significant": 6317,
      "infections": 6318,
      "beverages": 6319,
      "Screening": 6320,
      "%).": 6321,
      "06": 6322,
      "2n": 6323,
      "?&": 6324,
      "Du": 6325,
      "Edition": 6326,
      "Finally": 6327,
      "Hip": 6328,
      "JUN": 6329,
      "Mind": 6330,
      "NO": 6331,
      "Ped": 6332,
      "SI": 6333,
      "Som": 6334,
      "Vari": 6335,
      "bot": 6336,
      "cros": 6337,
      "dend": 6338,
      "dark": 6339,
      "ja": 6340,
      "taste": 6341,
      "wors": 6342,
      "warr": 6343,
      "zel": 6344,
      "모형": 6345,
      "표준": 6346,
      "ony": 6347,
      "atadine": 6348,
      "itative": 6349,
      "sten": 6350,
      "omed": 6351,
      "heav": 6352,
      "uronic": 6353,
      "resc": 6354,
      "loop": 6355,
      "implications": 6356,
      "clar": 6357,
      "1016": 6358,
      "spread": 6359,
      "193": 6360,
      "induce": 6361,
      "generate": 6362,
      "press": 6363,
      "autistic": 6364,
      "peak": 6365,
      "athan": 6366,
      "ificance": 6367,
      "Step": 6368,
      "Streng": 6369,
      "161": 6370,
      "173": 6371,
      "According": 6372,
      "choose": 6373,
      "bene": 6374,
      "amino": 6375,
      "MAY": 6376,
      "vasodil": 6377,
      "Examples": 6378,
      "hypersensitive": 6379,
      "contracti": 6380,
      "recumb": 6381,
      "Hyp": 6382,
      "growing": 6383,
      "statements": 6384,
      "decreases": 6385,
      "generated": 6386,
      "tinct": 6387,
      "Paul": 6388,
      "juncti": 6389,
      "Substance": 6390,
      "circuit": 6391,
      "situation": 6392,
      "listed": 6393,
      "larynx": 6394,
      "guest": 6395,
      "SEER": 6396,
      "Overall": 6397,
      "perceived": 6398,
      "successful": 6399,
      "dysfunction": 6400,
      "SLIT": 6401,
      "cerebral": 6402,
      "accurate": 6403,
      "accuracy": 6404,
      "endometrial": 6405,
      "Natl": 6406,
      "Statistical": 6407,
      "Textbooks": 6408,
      "opoiesis": 6409,
      "pancreatic": 6410,
      "Consumption": 6411,
      "Factors": 6412,
      "Similarly": 6413,
      "aqueous": 6414,
      "financial": 6415,
      "walking": 6416,
      "Exercise": 6417,
      "compliance": 6418,
      "umbilical": 6419,
      "JUNE": 6420,
      "4th": 6421,
      "Cop": 6422,
      "Crest": 6423,
      "Ery": 6424,
      "Her": 6425,
      "KJ": 6426,
      "Ot": 6427,
      "Pal": 6428,
      "Rheum": 6429,
      "SS": 6430,
      "Sens": 6431,
      "gar": 6432,
      "hap": 6433,
      "night": 6434,
      "oval": 6435,
      "otri": 6436,
      "slight": 6437,
      "instruc": 6438,
      "rebreathing": 6439,
      "anaphy": 6440,
      "ander": 6441,
      "icardi": 6442,
      "stable": 6443,
      "omal": 6444,
      "iden": 6445,
      "proposed": 6446,
      "terone": 6447,
      "look": 6448,
      "expression": 6449,
      "sys": 6450,
      "house": 6451,
      "display": 6452,
      "pleural": 6453,
      "ework": 6454,
      "therapists": 6455,
      "box": 6456,
      "141": 6457,
      "132": 6458,
      "allergies": 6459,
      "flurane": 6460,
      "ipal": 6461,
      "168": 6462,
      "181": 6463,
      "dead": 6464,
      "cavities": 6465,
      "172": 6466,
      "176": 6467,
      "glomer": 6468,
      "supportive": 6469,
      "240": 6470,
      "works": 6471,
      "normally": 6472,
      "bert": 6473,
      "expand": 6474,
      "pathway": 6475,
      "helps": 6476,
      "arteri": 6477,
      "dermis": 6478,
      "definition": 6479,
      "engage": 6480,
      "pects": 6481,
      "tools": 6482,
      "Struc": 6483,
      "interests": 6484,
      "branches": 6485,
      "ashes": 6486,
      "teeth": 6487,
      "otome": 6488,
      "mediators": 6489,
      "Multi": 6490,
      "Assessment": 6491,
      "Syndrome": 6492,
      "Time": 6493,
      "synaptic": 6494,
      "predictive": 6495,
      "coordination": 6496,
      "soft": 6497,
      "Behavioral": 6498,
      "azolam": 6499,
      "Espada": 6500,
      "peritoneal": 6501,
      "Question": 6502,
      "suitable": 6503,
      "beyond": 6504,
      "Molecular": 6505,
      "Bone": 6506,
      "Frit": 6507,
      "Garc": 6508,
      "JB": 6509,
      "Jon": 6510,
      "Jones": 6511,
      "Kang": 6512,
      "Mortality": 6513,
      "PL": 6514,
      "Physi": 6515,
      "Si": 6516,
      "Sed": 6517,
      "Smo": 6518,
      "Tri": 6519,
      "Wal": 6520,
      "autonom": 6521,
      "mist": 6522,
      "nail": 6523,
      "án": 6524,
      "통계": 6525,
      "replacement": 6526,
      "isation": 6527,
      "androgen": 6528,
      "aspects": 6529,
      "rog": 6530,
      "tosterone": 6531,
      "units": 6532,
      "conclusions": 6533,
      "propri": 6534,
      "lous": 6535,
      "oplas": 6536,
      "exam": 6537,
      "ticasone": 6538,
      "sep": 6539,
      "spill": 6540,
      "medulla": 6541,
      "covers": 6542,
      "distinct": 6543,
      "para": 6544,
      "preven": 6545,
      "ctures": 6546,
      "Anaphylaxis": 6547,
      "icient": 6548,
      "raise": 6549,
      "ilectures": 6550,
      "etyl": 6551,
      "sometimes": 6552,
      "233": 6553,
      "germ": 6554,
      "tingu": 6555,
      "methodological": 6556,
      "presenting": 6557,
      "world": 6558,
      "vaso": 6559,
      "Preventive": 6560,
      "transfusion": 6561,
      "working": 6562,
      "plasia": 6563,
      "Spinal": 6564,
      "finding": 6565,
      "Recent": 6566,
      "Biology": 6567,
      "PRO": 6568,
      "Board": 6569,
      "service": 6570,
      "embryo_": 6571,
      "adju": 6572,
      "Plan": 6573,
      "limbs": 6574,
      "hypnosis": 6575,
      "deliver": 6576,
      "science": 6577,
      "situated": 6578,
      "Specific": 6579,
      "absorber": 6580,
      "adenoma": 6581,
      "vaccines": 6582,
      "esophageal": 6583,
      "mesenchymal": 6584,
      "conditionally": 6585,
      "detailed": 6586,
      "trigger": 6587,
      "ICAL": 6588,
      "abstract": 6589,
      "pelvic": 6590,
      "Cardiovascular": 6591,
      "empirical": 6592,
      "myocardial": 6593,
      "ingestion": 6594,
      "favor": 6595,
      "menstrual": 6596,
      "liquid": 6597,
      "solubility": 6598,
      "thrust": 6599,
      "insufficiency": 6600,
      "Fritz": 6601,
      "210": 6602,
      "Are": 6603,
      "CJ": 6604,
      "CV": 6605,
      "EG": 6606,
      "Gree": 6607,
      "Hem": 6608,
      "PI": 6609,
      "Sper": 6610,
      "Sug": 6611,
      "Spe": 6612,
      "Such": 6613,
      "TN": 6614,
      "ZO": 6615,
      "aemia": 6616,
      "ease": 6617,
      "han": 6618,
      "lact": 6619,
      "mor": 6620,
      "mad": 6621,
      "sha": 6622,
      "why": 6623,
      "wise": 6624,
      "thing": 6625,
      "ank": 6626,
      "anous": 6627,
      "ister": 6628,
      "ident": 6629,
      "urticaria": 6630,
      "cemic": 6631,
      "congestion": 6632,
      "promin": 6633,
      "sum": 6634,
      "trim": 6635,
      "odopa": 6636,
      "betic": 6637,
      "ope": 6638,
      "ays": 6639,
      "Inst": 6640,
      "distingu": 6641,
      "prescri": 6642,
      "postoperative": 6643,
      "obese": 6644,
      "166": 6645,
      "185": 6646,
      "ción": 6647,
      "shell": 6648,
      "nonspecific": 6649,
      "versal": 6650,
      "significance": 6651,
      "viscer": 6652,
      "gesterone": 6653,
      "consumers": 6654,
      "showing": 6655,
      "detected": 6656,
      "generalized": 6657,
      "Endo": 6658,
      "Clinically": 6659,
      "halothane": 6660,
      "ESTH": 6661,
      "accumul": 6662,
      "rophy": 6663,
      "mitotic": 6664,
      "mucus": 6665,
      "Colorectal": 6666,
      "ancing": 6667,
      "tubular": 6668,
      "schools": 6669,
      "consistency": 6670,
      "reliable": 6671,
      "Neurol": 6672,
      "Plate": 6673,
      "Carl": 6674,
      "STM": 6675,
      "ukast": 6676,
      "Does": 6677,
      "Causes": 6678,
      "Moreover": 6679,
      "palp": 6680,
      "strengthen": 6681,
      "concern": 6682,
      "phenomen": 6683,
      "subjective": 6684,
      "minimum": 6685,
      "accepted": 6686,
      "chemicals": 6687,
      "hourly": 6688,
      "encourage": 6689,
      "mammary": 6690,
      "21397": 6691,
      "saturated": 6692,
      "maximum": 6693,
      "peptide": 6694,
      "Vitamin": 6695,
      "opathic": 6696,
      "bundles": 6697,
      "withdrawal": 6698,
      "reveal": 6699,
      "utrophils": 6700,
      "Toxic": 6701,
      "Strength": 6702,
      "embryo_images": 6703,
      "220": 6704,
      "Cas": 6705,
      "Gil": 6706,
      "JD": 6707,
      "Page": 6708,
      "Role": 6709,
      "TV": 6710,
      "Tb": 6711,
      "UARY": 6712,
      "Ven": 6713,
      "hi": 6714,
      "tone": 6715,
      "warm": 6716,
      "xylazine": 6717,
      "yn": 6718,
      "사용": 6719,
      "instead": 6720,
      "anic": 6721,
      "atum": 6722,
      "arise": 6723,
      "sty": 6724,
      "het": 6725,
      "heat": 6726,
      "chol": 6727,
      "chick": 6728,
      "conjuncti": 6729,
      "supr": 6730,
      "aint": 6731,
      "ophy": 6732,
      "ucida": 6733,
      "sibility": 6734,
      "syring": 6735,
      "neuromuscular": 6736,
      "living": 6737,
      "distributed": 6738,
      "20140": 6739,
      "grains": 6740,
      "155": 6741,
      "centre": 6742,
      "student": 6743,
      "186": 6744,
      "deriv": 6745,
      "179": 6746,
      "antibody": 6747,
      "ptan": 6748,
      "shif": 6749,
      "ski": 6750,
      "Impro": 6751,
      "extends": 6752,
      "Unit": 6753,
      "crust": 6754,
      "struct": 6755,
      "behaviour": 6756,
      "1002": 6757,
      "held": 6758,
      "CIT": 6759,
      "turbin": 6760,
      "BMI": 6761,
      "predomin": 6762,
      "coping": 6763,
      "joints": 6764,
      "Peri": 6765,
      "ovary": 6766,
      "maintaining": 6767,
      "Schw": 6768,
      "Isoflurane": 6769,
      "somatic": 6770,
      "hydration": 6771,
      "platelets": 6772,
      "analgesics": 6773,
      "meats": 6774,
      "investigators": 6775,
      "Objec": 6776,
      "enzyme": 6777,
      "writing": 6778,
      "inspiratory": 6779,
      "Egger": 6780,
      "PPV": 6781,
      "Intrathecal": 6782,
      "adjusted": 6783,
      "extraembryonic": 6784,
      "disturbance": 6785,
      "constriction": 6786,
      "preparation": 6787,
      "words": 6788,
      "Index": 6789,
      "lysosomes": 6790,
      "stroke": 6791,
      "makes": 6792,
      "bowel": 6793,
      "clusive": 6794,
      "brief": 6795,
      "Foundation": 6796,
      "intermittent": 6797,
      "ación": 6798,
      "2nd": 6799,
      "Greek": 6800,
      "ZOOLOGY": 6801,
      "AI": 6802,
      "Bet": 6803,
      "Cour": 6804,
      "DIS": 6805,
      "Future": 6806,
      "GU": 6807,
      "Hum": 6808,
      "Mur": 6809,
      "NT": 6810,
      "Numb": 6811,
      "RH": 6812,
      "RL": 6813,
      "Safety": 6814,
      "TION": 6815,
      "Wood": 6816,
      "ba": 6817,
      "buc": 6818,
      "bular": 6819,
      "database": 6820,
      "fal": 6821,
      "fun": 6822,
      "fuse": 6823,
      "finger": 6824,
      "ifor": 6825,
      "lose": 6826,
      "mc": 6827,
      "matic": 6828,
      "mmet": 6829,
      "paired": 6830,
      "spl": 6831,
      "society": 6832,
      "tely": 6833,
      "trends": 6834,
      "vo": 6835,
      "wave": 6836,
      "변량": 6837,
      "이다": 6838,
      "중재": 6839,
      "inv": 6840,
      "anas": 6841,
      "tially": 6842,
      "erts": 6843,
      "enes": 6844,
      "altern": 6845,
      "thems": 6846,
      "theless": 6847,
      "ofrequency": 6848,
      "ission": 6849,
      "letoe": 6850,
      "staining": 6851,
      "elabor": 6852,
      "conce": 6853,
      "concluded": 6854,
      "project": 6855,
      "adop": 6856,
      "tras": 6857,
      "trip": 6858,
      "exposed": 6859,
      "phases": 6860,
      "seal": 6861,
      "netic": 6862,
      "1000": 6863,
      "2018": 6864,
      "gency": 6865,
      "print": 6866,
      "Anton": 6867,
      "sublingual": 6868,
      "biof": 6869,
      "aceu": 6870,
      "182": 6871,
      "raised": 6872,
      "301": 6873,
      "1991": 6874,
      "extended": 6875,
      "wheat": 6876,
      "visible": 6877,
      "reflect": 6878,
      "opharmac": 6879,
      "Example": 6880,
      "arches": 6881,
      "researchers": 6882,
      "multimodal": 6883,
      "lymphedema": 6884,
      "topia": 6885,
      "radiating": 6886,
      "decreasing": 6887,
      "Author": 6888,
      "Rehabil": 6889,
      "measurements": 6890,
      "Surg": 6891,
      "Surge": 6892,
      "influences": 6893,
      "stimulating": 6894,
      "progression": 6895,
      "hrs": 6896,
      "localized": 6897,
      "hypogly": 6898,
      "abnormality": 6899,
      "CEMBER": 6900,
      "Joint": 6901,
      "puberty": 6902,
      "Despite": 6903,
      "screen": 6904,
      "bilateral": 6905,
      "reached": 6906,
      "separated": 6907,
      "Anesthesia": 6908,
      "Curr": 6909,
      "speech": 6910,
      "details": 6911,
      "neuropathy": 6912,
      "activation": 6913,
      "endothelium": 6914,
      "Feb": 6915,
      "DECEMBER": 6916,
      "abstracts": 6917,
      "tification": 6918,
      "olytic": 6919,
      "January": 6920,
      "circumstances": 6921,
      "hypothalamus": 6922,
      "plexus": 6923,
      "principles": 6924,
      "bradycardia": 6925,
      "framework": 6926,
      "tomidine": 6927,
      "warrant": 6928,
      ".;": 6929,
      "/.": 6930,
      "07": 6931,
      "08": 6932,
      "Bot": 6933,
      "Black": 6934,
      "Cir": 6935,
      "Equ": 6936,
      "Fem": 6937,
      "FER": 6938,
      "FOR": 6939,
      "Ham": 6940,
      "JR": 6941,
      "Llo": 6942,
      "Local": 6943,
      "MED": 6944,
      "Nasal": 6945,
      "Oh": 6946,
      "PJ": 6947,
      "Pop": 6948,
      "Paren": 6949,
      "Rich": 6950,
      "Sing": 6951,
      "Ster": 6952,
      "TER": 6953,
      "Trends": 6954,
      "Ul": 6955,
      "Venti": 6956,
      "Wol": 6957,
      "Wang": 6958,
      "_ht": 6959,
      "hl": 6960,
      "kel": 6961,
      "mas": 6962,
      "pell": 6963,
      "rub": 6964,
      "rating": 6965,
      "rationale": 6966,
      "utility": 6967,
      "xy": 6968,
      "yet": 6969,
      "yatt": 6970,
      "사건": 6971,
      "iner": 6972,
      "innerv": 6973,
      "return": 6974,
      "onide": 6975,
      "tients": 6976,
      "ato": 6977,
      "ars": 6978,
      "icated": 6979,
      "ston": 6980,
      "omark": 6981,
      "ilateral": 6982,
      "cephal": 6983,
      "emic": 6984,
      "oses": 6985,
      "sue": 6986,
      "lobal": 6987,
      "exhib": 6988,
      "otor": 6989,
      "elles": 6990,
      "aller": 6991,
      "endings": 6992,
      "epile": 6993,
      "1097": 6994,
      "discharge": 6995,
      "whom": 6996,
      "ify": 6997,
      "unders": 6998,
      "Three": 6999,
      "genes": 7000,
      "prone": 7001,
      "manu": 7002,
      "manner": 7003,
      "astroph": 7004,
      "mail": 7005,
      "flashes": 7006,
      "surfaces": 7007,
      "cardev": 7008,
      "ignocaine": 7009,
      "aceous": 7010,
      "Char": 7011,
      "183": 7012,
      "intoler": 7013,
      "serotonin": 7014,
      "225": 7015,
      "ishing": 7016,
      "grams": 7017,
      "aminar": 7018,
      "geriatric": 7019,
      "cream": 7020,
      "Cook": 7021,
      "occurring": 7022,
      "Americans": 7023,
      "completely": 7024,
      "ameth": 7025,
      "Trials": 7026,
      "consideration": 7027,
      "allergenic": 7028,
      "natal": 7029,
      "tomatic": 7030,
      "conducting": 7031,
      "chromatin": 7032,
      "lottis": 7033,
      "persons": 7034,
      "filtration": 7035,
      "Sciences": 7036,
      "named": 7037,
      "countries": 7038,
      "planation": 7039,
      "Califor": 7040,
      "Gastrointestinal": 7041,
      "electronic": 7042,
      "Diagnostic": 7043,
      "physiological": 7044,
      "resolution": 7045,
      "slowly": 7046,
      "anatomical": 7047,
      "sweet": 7048,
      "enhance": 7049,
      "Supporting": 7050,
      "Statistics": 7051,
      "confirmed": 7052,
      "SPTs": 7053,
      "Follow": 7054,
      "decidua": 7055,
      "calculated": 7056,
      "telukast": 7057,
      "Thyroid": 7058,
      "mobilization": 7059,
      "luteum": 7060,
      "attitudes": 7061,
      "Brief": 7062,
      "aldosterone": 7063,
      "hydrolyzed": 7064,
      "threatening": 7065,
      "phenomenon": 7066,
      "themselves": 7067,
      "_htms": 7068,
      "216": 7069,
      "AF": 7070,
      "AW": 7071,
      "BJ": 7072,
      "Cle": 7073,
      "EA": 7074,
      "Econ": 7075,
      "JS": 7076,
      "JW": 7077,
      "Jag": 7078,
      "KA": 7079,
      "Kore": 7080,
      "Lang": 7081,
      "Mechan": 7082,
      "Opin": 7083,
      "Prom": 7084,
      "RD": 7085,
      "SK": 7086,
      "SN": 7087,
      "TC": 7088,
      "TO": 7089,
      "Zh": 7090,
      "])": 7091,
      "big": 7092,
      "cris": 7093,
      "easy": 7094,
      "fax": 7095,
      "hes": 7096,
      "hard": 7097,
      "ky": 7098,
      "ken": 7099,
      "kind": 7100,
      "ped": 7101,
      "rof": 7102,
      "skeleton": 7103,
      "tus": 7104,
      "발생": 7105,
      "inous": 7106,
      "rey": 7107,
      "onto": 7108,
      "orge": 7109,
      "thelial": 7110,
      "atation": 7111,
      "atology": 7112,
      "accomp": 7113,
      "itant": 7114,
      "stated": 7115,
      "ellow": 7116,
      "ett": 7117,
      "cham": 7118,
      "unless": 7119,
      "203": 7120,
      "appe": 7121,
      "amins": 7122,
      "mentary": 7123,
      "exclusion": 7124,
      "expressed": 7125,
      "Intr": 7126,
      "venti": 7127,
      "iaz": 7128,
      "191": 7129,
      "managing": 7130,
      "relate": 7131,
      "flat": 7132,
      "monitor": 7133,
      "Changes": 7134,
      "184": 7135,
      "187": 7136,
      "188": 7137,
      "sections": 7138,
      "calc": 7139,
      "serous": 7140,
      "aird": 7141,
      "243": 7142,
      "244": 7143,
      "234": 7144,
      "vised": 7145,
      "thymus": 7146,
      "299": 7147,
      "External": 7148,
      "Explanation": 7149,
      "Environ": 7150,
      "helf": 7151,
      "Severe": 7152,
      "Meth": 7153,
      "identification": 7154,
      "absent": 7155,
      "searches": 7156,
      "tubule": 7157,
      "Abstr": 7158,
      "Survey": 7159,
      "cords": 7160,
      "1989": 7161,
      "adian": 7162,
      "prognosis": 7163,
      "advanced": 7164,
      "failed": 7165,
      "panic": 7166,
      "ometric": 7167,
      "ognition": 7168,
      "hormonal": 7169,
      "nodules": 7170,
      "Monitoring": 7171,
      "Decreas": 7172,
      "ikh": 7173,
      "tolerated": 7174,
      "palate": 7175,
      "loratadine": 7176,
      "materials": 7177,
      "capillary": 7178,
      "Oxford": 7179,
      "Methodology": 7180,
      "eventually": 7181,
      "releasing": 7182,
      "inhaled": 7183,
      "inhalation": 7184,
      "Since": 7185,
      "English": 7186,
      "ligament": 7187,
      "mammal": 7188,
      "episodes": 7189,
      "judgment": 7190,
      "depressants": 7191,
      "sclerosis": 7192,
      "Organization": 7193,
      "Pulmonary": 7194,
      "Irles": 7195,
      "categories": 7196,
      "Otolaryngology": 7197,
      "Lumbar": 7198,
      "floor": 7199,
      "eligibility": 7200,
      "caution": 7201,
      "Madrid": 7202,
      "SADs": 7203,
      "Knapp": 7204,
      "Pedro": 7205,
      "beneath": 7206,
      "adjuvant": 7207,
      "syringe": 7208,
      "structural": 7209,
      "Lloret": 7210,
      "California": 7211,
      "211": 7212,
      "B2": 7213,
      "Bol": 7214,
      "CB": 7215,
      "Cri": 7216,
      "Derm": 7217,
      "FC": 7218,
      "Fc": 7219,
      "Fre": 7220,
      "Find": 7221,
      "Fish": 7222,
      "Guid": 7223,
      "Hen": 7224,
      "Its": 7225,
      "Ker": 7226,
      "LR": 7227,
      "Less": 7228,
      "Mol": 7229,
      "Mag": 7230,
      "Max": 7231,
      "March": 7232,
      "Opi": 7233,
      "Water": 7234,
      "bid": 7235,
      "kins": 7236,
      "nm": 7237,
      "stop": 7238,
      "represents": 7239,
      "ano": 7240,
      "atri": 7241,
      "arism": 7242,
      "lea": 7243,
      "omp": 7244,
      "vem": 7245,
      "unable": 7246,
      "progesterone": 7247,
      "osen": 7248,
      "209": 7249,
      "apse": 7250,
      "utamine": 7251,
      "irable": 7252,
      "ochemical": 7253,
      "quick": 7254,
      "spleen": 7255,
      "coag": 7256,
      "rizine": 7257,
      "graph": 7258,
      "That": 7259,
      "effort": 7260,
      "drink": 7261,
      "drinking": 7262,
      "answ": 7263,
      "157": 7264,
      "145": 7265,
      "aving": 7266,
      "highlight": 7267,
      "cold": 7268,
      "colo": 7269,
      "Canadian": 7270,
      "267": 7271,
      "jection": 7272,
      "Adv": 7273,
      "varied": 7274,
      "Pract": 7275,
      "visions": 7276,
      "synthetic": 7277,
      "worth": 7278,
      "ophen": 7279,
      "hyperthyroidism": 7280,
      "IgG": 7281,
      "impaired": 7282,
      "ANA": 7283,
      "chez": 7284,
      "Endoc": 7285,
      "neurologic": 7286,
      "Meiosis": 7287,
      "involve": 7288,
      "organic": 7289,
      "organizations": 7290,
      "Epid": 7291,
      "affective": 7292,
      "ancis": 7293,
      "migrain": 7294,
      "devi": 7295,
      "granulation": 7296,
      "definitions": 7297,
      "adipose": 7298,
      "intestine": 7299,
      "contributes": 7300,
      "passage": 7301,
      "scales": 7302,
      "sacroiliac": 7303,
      "fluticasone": 7304,
      "fiberoptic": 7305,
      "cannabin": 7306,
      "steroidal": 7307,
      "beginning": 7308,
      "Europe": 7309,
      "Francis": 7310,
      "electroly": 7311,
      "Octo": 7312,
      "adaptive": 7313,
      "Dermat": 7314,
      "steps": 7315,
      "direction": 7316,
      "tumours": 7317,
      "culture": 7318,
      "largely": 7319,
      "Addiction": 7320,
      "cochlear": 7321,
      "Australia": 7322,
      "assigned": 7323,
      "intentional": 7324,
      "impulses": 7325,
      "Renal": 7326,
      "ee34": 7327,
      "planned": 7328,
      "Topical": 7329,
      "imagery": 7330,
      "Oxygen": 7331,
      "Simonian": 7332,
      "Hartung": 7333,
      "week1_": 7334,
      "e1ee34": 7335,
      "omarkers": 7336,
      "316": 7337,
      "BE": 7338,
      "CK": 7339,
      "Cam": 7340,
      "Fitz": 7341,
      "Good": 7342,
      "Gold": 7343,
      "HS": 7344,
      "Hu": 7345,
      "IP": 7346,
      "IR": 7347,
      "James": 7348,
      "King": 7349,
      "Laird": 7350,
      "Mill": 7351,
      "Pap": 7352,
      "Sac": 7353,
      "Sil": 7354,
      "Te": 7355,
      "Tit": 7356,
      "Veter": 7357,
      "Yo": 7358,
      "ball": 7359,
      "bones": 7360,
      "border": 7361,
      "dren": 7362,
      "kman": 7363,
      "lactin": 7364,
      "pts": 7365,
      "하게": 7366,
      "reme": 7367,
      "reactivity": 7368,
      "enberg": 7369,
      "isal": 7370,
      "isons": 7371,
      "entary": 7372,
      "acu": 7373,
      "academ": 7374,
      "itch": 7375,
      "lel": 7376,
      "omb": 7377,
      "idal": 7378,
      "height": 7379,
      "forts": 7380,
      "etine": 7381,
      "chondro": 7382,
      "chosen": 7383,
      "uncertain": 7384,
      "convul": 7385,
      "prophy": 7386,
      "osum": 7387,
      "adventi": 7388,
      "205": 7389,
      "206": 7390,
      "ama": 7391,
      "eving": 7392,
      "igorous": 7393,
      "ocation": 7394,
      "ogens": 7395,
      "live": 7396,
      "discomfort": 7397,
      "ries": 7398,
      "illary": 7399,
      "painful": 7400,
      "powered": 7401,
      "1471": 7402,
      "cyl": 7403,
      "unclear": 7404,
      "goitre": 7405,
      "serving": 7406,
      "Action": 7407,
      "antieme": 7408,
      "223": 7409,
      "229": 7410,
      "241": 7411,
      "elson": 7412,
      "235": 7413,
      "Die": 7414,
      "CAD": 7415,
      "potent": 7416,
      "deficit": 7417,
      "ogenous": 7418,
      "processing": 7419,
      "336": 7420,
      "sterile": 7421,
      "armaceu": 7422,
      "anaesthetics": 7423,
      "restor": 7424,
      "resulted": 7425,
      "attacks": 7426,
      "radiofrequency": 7427,
      "alcoholic": 7428,
      "annathan": 7429,
      "remia": 7430,
      "arrang": 7431,
      "affects": 7432,
      "affecting": 7433,
      "tubes": 7434,
      "ITY": 7435,
      "tight": 7436,
      "directed": 7437,
      "influenced": 7438,
      "equi": 7439,
      "equally": 7440,
      "equivocal": 7441,
      "Gene": 7442,
      "vitamins": 7443,
      "Psychol": 7444,
      "learn": 7445,
      "toxin": 7446,
      "females": 7447,
      "belong": 7448,
      "extremely": 7449,
      "poorly": 7450,
      "BCC": 7451,
      "column": 7452,
      "semin": 7453,
      "teaching": 7454,
      "Orthop": 7455,
      "documented": 7456,
      "otropic": 7457,
      "constitute": 7458,
      "preparations": 7459,
      "Secondary": 7460,
      "Morris": 7461,
      "Furthermore": 7462,
      "seeking": 7463,
      "Ketamine": 7464,
      "formulas": 7465,
      "earlier": 7466,
      "Copy": 7467,
      "otriene": 7468,
      "Questionnaire": 7469,
      "pellucida": 7470,
      "Jagannathan": 7471,
      "academic": 7472,
      ".),": 7473,
      "230": 7474,
      "Don": 7475,
      "Ken": 7476,
      "Key": 7477,
      "Male": 7478,
      "NJ": 7479,
      "Part": 7480,
      "PIC": 7481,
      "Red": 7482,
      "Sid": 7483,
      "Van": 7484,
      "aid": 7485,
      "aort": 7486,
      "away": 7487,
      "e7": 7488,
      "eedback": 7489,
      "fre": 7490,
      "furo": 7491,
      "ki": 7492,
      "morbid": 7493,
      "name": 7494,
      "oking": 7495,
      "pT": 7496,
      "pup": 7497,
      "rum": 7498,
      "tative": 7499,
      "wi": 7500,
      "wat": 7501,
      "ye": 7502,
      "inn": 7503,
      "antic": 7504,
      "tiv": 7505,
      "asia": 7506,
      "icle": 7507,
      "stay": 7508,
      "elong": 7509,
      "foramen": 7510,
      "urance": 7511,
      "ursing": 7512,
      "unlikely": 7513,
      "unknown": 7514,
      "ceti": 7515,
      "prom": 7516,
      "ampl": 7517,
      "imen": 7518,
      "impl": 7519,
      "ffe": 7520,
      "oc4": 7521,
      "pericardi": 7522,
      "thermia": 7523,
      "phil": 7524,
      "clic": 7525,
      "select": 7526,
      "quet": 7527,
      "uge": 7528,
      "ife": 7529,
      "iferous": 7530,
      "antly": 7531,
      "efits": 7532,
      "views": 7533,
      "groove": 7534,
      "fees": 7535,
      "242": 7536,
      "245": 7537,
      "depos": 7538,
      "associations": 7539,
      "ARIA": 7540,
      "testis": 7541,
      "ERICA": 7542,
      "263": 7543,
      "mostly": 7544,
      "taining": 7545,
      "236": 7546,
      "Practitioners": 7547,
      "modest": 7548,
      "ocyto": 7549,
      "applying": 7550,
      "occurred": 7551,
      "secretions": 7552,
      "immunity": 7553,
      "idermal": 7554,
      "Novem": 7555,
      "multic": 7556,
      "fatal": 7557,
      "END": 7558,
      "demand": 7559,
      "untary": 7560,
      "considering": 7561,
      "Surveillance": 7562,
      "Behav": 7563,
      "orphanol": 7564,
      "Anaesthe": 7565,
      "STAT": 7566,
      "Movie": 7567,
      "difficulty": 7568,
      "segments": 7569,
      "EMENT": 7570,
      "Limited": 7571,
      "counsel": 7572,
      "paper": 7573,
      "probability": 7574,
      "regularly": 7575,
      "AMERICA": 7576,
      "purpose": 7577,
      "Small": 7578,
      "unique": 7579,
      "teachers": 7580,
      "possibility": 7581,
      "aggressive": 7582,
      "DerSimonian": 7583,
      "streak": 7584,
      "PMID": 7585,
      "QUOR": 7586,
      "Handbook": 7587,
      "malignant": 7588,
      "ciliated": 7589,
      "adherence": 7590,
      "SPMS": 7591,
      "agreement": 7592,
      "offered": 7593,
      "Allergen": 7594,
      "retina": 7595,
      "compartment": 7596,
      "mboc4": 7597,
      "veterinary": 7598,
      "Migraine": 7599,
      "García": 7600,
      "cylind": 7601,
      "AMERICAN": 7602,
      "**": 7603,
      "8th": 7604,
      "Ax": 7605,
      "Agency": 7606,
      "Bow": 7607,
      "CN": 7608,
      "EX": 7609,
      "Frequ": 7610,
      "Hair": 7611,
      "JC": 7612,
      "Kle": 7613,
      "MF": 7614,
      "Mis": 7615,
      "Nerv": 7616,
      "Ol": 7617,
      "Os": 7618,
      "Rol": 7619,
      "Uter": 7620,
      "WA": 7621,
      "ather": 7622,
      "bes": 7623,
      "bell": 7624,
      "ck": 7625,
      "creat": 7626,
      "clot": 7627,
      "dens": 7628,
      "fate": 7629,
      "gent": 7630,
      "itional": 7631,
      "oh": 7632,
      "ptions": 7633,
      "rER": 7634,
      "simply": 7635,
      "”)": 7636,
      "rep": 7637,
      "reproduction": 7638,
      "replaced": 7639,
      "reuptake": 7640,
      "tice": 7641,
      "eness": 7642,
      "allocation": 7643,
      "atrial": 7644,
      "artis": 7645,
      "roll": 7646,
      "sta": 7647,
      "sts": 7648,
      "oman": 7649,
      "olysis": 7650,
      "veys": 7651,
      "dif": 7652,
      "chil": 7653,
      "chapter": 7654,
      "changed": 7655,
      "promotion": 7656,
      "trained": 7657,
      "composition": 7658,
      "sip": 7659,
      "claim": 7660,
      "qual": 7661,
      "endit": 7662,
      "epib": 7663,
      "meiosis": 7664,
      "haz": 7665,
      "dispar": 7666,
      "paramet": 7667,
      "prepared": 7668,
      "192": 7669,
      "195": 7670,
      "actual": 7671,
      "stratum": 7672,
      "commerc": 7673,
      "practical": 7674,
      "manent": 7675,
      "ichen": 7676,
      "bile": 7677,
      "diffuse": 7678,
      "inside": 7679,
      "levodopa": 7680,
      "derly": 7681,
      "airy": 7682,
      "227": 7683,
      "228": 7684,
      "Moher": 7685,
      "Movement": 7686,
      "black": 7687,
      "Implication": 7688,
      "tillo": 7689,
      "cortical": 7690,
      "Proc": 7691,
      "Prop": 7692,
      "visory": 7693,
      "285": 7694,
      "defects": 7695,
      "Unclear": 7696,
      "gestive": 7697,
      "primor": 7698,
      "FAB": 7699,
      "welling": 7700,
      "transverse": 7701,
      "Seid": 7702,
      "improvements": 7703,
      "combining": 7704,
      "facial": 7705,
      "Collaboration": 7706,
      "Biomarkers": 7707,
      "considerable": 7708,
      "Embryo": 7709,
      "stimuli": 7710,
      "hands": 7711,
      "injur": 7712,
      "Effectiveness": 7713,
      "quez": 7714,
      "allowed": 7715,
      "hemody": 7716,
      "hemoglobin": 7717,
      "member": 7718,
      "statistics": 7719,
      "ospasm": 7720,
      "fewer": 7721,
      "ogeneous": 7722,
      "microvilli": 7723,
      "vegetable": 7724,
      "extraction": 7725,
      "affin": 7726,
      "absorbed": 7727,
      "marked": 7728,
      "asymp": 7729,
      "pigs": 7730,
      "iii": 7731,
      "meeting": 7732,
      "update": 7733,
      "alkal": 7734,
      "Guyatt": 7735,
      "carbon": 7736,
      "Natural": 7737,
      "reticulum": 7738,
      "Adolescence": 7739,
      "sheath": 7740,
      "fibrous": 7741,
      "awareness": 7742,
      "ethnic": 7743,
      "Outcomes": 7744,
      "eosinophilic": 7745,
      "connecting": 7746,
      "ribosomes": 7747,
      "CSF": 7748,
      "Reduced": 7749,
      "hyaluronic": 7750,
      "consciousness": 7751,
      "opportunity": 7752,
      "drainage": 7753,
      "glucocorticosteroids": 7754,
      "cloac": 7755,
      "achycardia": 7756,
      "Oriented": 7757,
      "South": 7758,
      "timately": 7759,
      "stenosis": 7760,
      "heavy": 7761,
      "Jonkman": 7762,
      "Castillo": 7763,
      "Female": 7764,
      "astrophizing": 7765,
      "Abstract": 7766,
      "October": 7767,
      "Copyright": 7768,
      "Sidik": 7769,
      "furoate": 7770,
      "ffeine": 7771,
      "QUOROM": 7772,
      "Nervous": 7773,
      "!!": 7774,
      "330": 7775,
      "AH": 7776,
      "Ace": 7777,
      "Box": 7778,
      "CP": 7779,
      "Dop": 7780,
      "FI": 7781,
      "GN": 7782,
      "Gle": 7783,
      "HJ": 7784,
      "IPPV": 7785,
      "Kidney": 7786,
      "LC": 7787,
      "MC": 7788,
      "Mater": 7789,
      "OB": 7790,
      "Off": 7791,
      "Sex": 7792,
      "Sensi": 7793,
      "Self": 7794,
      "SCIT": 7795,
      "Ts": 7796,
      "Tra": 7797,
      "Whe": 7798,
      "baceous": 7799,
      "cocaine": 7800,
      "fine": 7801,
      "ficial": 7802,
      "fasc": 7803,
      "fentanyl": 7804,
      "kers": 7805,
      "ln": 7806,
      "liter": 7807,
      "oti": 7808,
      "ost": 7809,
      "trem": 7810,
      "utive": 7811,
      "yal": 7812,
      "inqu": 7813,
      "rees": 7814,
      "onary": 7815,
      "enlarg": 7816,
      "editor": 7817,
      "icies": 7818,
      "icles": 7819,
      "rous": 7820,
      "enters": 7821,
      "acial": 7822,
      "stability": 7823,
      "omotor": 7824,
      "idus": 7825,
      "proce": 7826,
      "oscope": 7827,
      "oscopy": 7828,
      "adol": 7829,
      "apical": 7830,
      "compr": 7831,
      "aints": 7832,
      "ocol": 7833,
      "ocular": 7834,
      "phed": 7835,
      "Induction": 7836,
      "bra": 7837,
      "epidermal": 7838,
      "tising": 7839,
      "anta": 7840,
      "pread": 7841,
      "prelim": 7842,
      "grain": 7843,
      "therapist": 7844,
      "prur": 7845,
      "efforts": 7846,
      "poses": 7847,
      "posite": 7848,
      "erald": 7849,
      "subgroups": 7850,
      "ification": 7851,
      "colitis": 7852,
      "volumes": 7853,
      "ART": 7854,
      "testosterone": 7855,
      "echol": 7856,
      "Prot": 7857,
      "279": 7858,
      "FAAP": 7859,
      "CTION": 7860,
      "349": 7861,
      "recognition": 7862,
      "OLP": 7863,
      "organized": 7864,
      "expensive": 7865,
      "initiated": 7866,
      "mitosis": 7867,
      "pathy": 7868,
      "licens": 7869,
      "Arter": 7870,
      "Physicians": 7871,
      "hypox": 7872,
      "Auto": 7873,
      "ancies": 7874,
      "prediction": 7875,
      "appropriately": 7876,
      "Bias": 7877,
      "MBSR": 7878,
      "differentiated": 7879,
      "dependence": 7880,
      "1986": 7881,
      "Suppl": 7882,
      "Genital": 7883,
      "hemopoiesis": 7884,
      "glyco": 7885,
      "standards": 7886,
      "rites": 7887,
      "pregnant": 7888,
      "passes": 7889,
      "iotic": 7890,
      "relevance": 7891,
      "performing": 7892,
      "investigation": 7893,
      "adrenaline": 7894,
      "discussed": 7895,
      "fourth": 7896,
      "regulated": 7897,
      "Occas": 7898,
      "dynamic": 7899,
      "diagram": 7900,
      "principal": 7901,
      "radicular": 7902,
      "stream": 7903,
      "Initial": 7904,
      "Novartis": 7905,
      "mixture": 7906,
      "extracted": 7907,
      "cochlea": 7908,
      "bronchial": 7909,
      "opportunities": 7910,
      "Definition": 7911,
      "Cyto": 7912,
      "ibrils": 7913,
      "pineal": 7914,
      "George": 7915,
      "Continuous": 7916,
      "temporal": 7917,
      "channel": 7918,
      "advantage": 7919,
      "retrospective": 7920,
      "assium": 7921,
      "disciplinary": 7922,
      "tympanic": 7923,
      "pseudo": 7924,
      "orrhea": 7925,
      "zygote": 7926,
      "Ott": 7927,
      "Structure": 7928,
      "mistletoe": 7929,
      "madex": 7930,
      "ESTHES": 7931,
      "manufact": 7932,
      "Critical": 7933,
      "Gleason": 7934,
      "->": 7935,
      "212": 7936,
      "315": 7937,
      "Berg": 7938,
      "Cer": 7939,
      "Che": 7940,
      "Dose": 7941,
      "Fat": 7942,
      "GB": 7943,
      "Han": 7944,
      "Heter": 7945,
      "Jr": 7946,
      "Lau": 7947,
      "Lung": 7948,
      "Life": 7949,
      "Mast": 7950,
      "Never": 7951,
      "Nerve": 7952,
      "Pig": 7953,
      "Pred": 7954,
      "Ri": 7955,
      "Sán": 7956,
      "Tes": 7957,
      "Will": 7958,
      "aortic": 7959,
      "dl": 7960,
      "ez": 7961,
      "lid": 7962,
      "lap": 7963,
      "mu": 7964,
      "mess": 7965,
      "mach": 7966,
      "sid": 7967,
      "sER": 7968,
      "된다": 7969,
      "thiopentone": 7970,
      "rehabil": 7971,
      "tified": 7972,
      "enza": 7973,
      "orter": 7974,
      "orial": 7975,
      "ortium": 7976,
      "atosis": 7977,
      "arks": 7978,
      "arrest": 7979,
      "arising": 7980,
      "rough": 7981,
      "rotation": 7982,
      "uss": 7983,
      "omat": 7984,
      "ulated": 7985,
      "urium": 7986,
      "digest": 7987,
      "resia": 7988,
      "resource": 7989,
      "208": 7990,
      "oglobulin": 7991,
      "perspective": 7992,
      "photo": 7993,
      "clust": 7994,
      "render": 7995,
      "Intub": 7996,
      "weigh": 7997,
      "epig": 7998,
      "methyl": 7999,
      "disk": 8000,
      "ologies": 8001,
      "190": 8002,
      "grav": 8003,
      "Thomp": 8004,
      "istant": 8005,
      "sound": 8006,
      "ibular": 8007,
      "cluding": 8008,
      "conserv": 8009,
      "peers": 8010,
      "otherwise": 8011,
      "Any": 8012,
      "obic": 8013,
      "monitors": 8014,
      "montelukast": 8015,
      "instit": 8016,
      "Chi": 8017,
      "caus": 8018,
      "feature": 8019,
      "thereby": 8020,
      "wood": 8021,
      "share": 8022,
      "egel": 8023,
      "divide": 8024,
      "260": 8025,
      "cribe": 8026,
      "cript": 8027,
      "versely": 8028,
      "visits": 8029,
      "295": 8030,
      "popular": 8031,
      "Hydro": 8032,
      "transfer": 8033,
      "topics": 8034,
      "organelles": 8035,
      "expendit": 8036,
      "sedative": 8037,
      "combinations": 8038,
      "mention": 8039,
      "Lower": 8040,
      "oxygenation": 8041,
      "ADH": 8042,
      "Audi": 8043,
      "domain": 8044,
      "erythe": 8045,
      "copic": 8046,
      "postmenopausal": 8047,
      "Depression": 8048,
      "parenting": 8049,
      "herb": 8050,
      "blinded": 8051,
      "prognostic": 8052,
      "Keith": 8053,
      "advise": 8054,
      "adequately": 8055,
      "somites": 8056,
      "structured": 8057,
      "Simons": 8058,
      "addressing": 8059,
      "Metabol": 8060,
      "Associate": 8061,
      "inhibits": 8062,
      "intrad": 8063,
      "ranial": 8064,
      "fluor": 8065,
      "burden": 8066,
      "implemented": 8067,
      "Analges": 8068,
      "emphig": 8069,
      "attachment": 8070,
      "molecular": 8071,
      "fractures": 8072,
      "gastrulation": 8073,
      "URES": 8074,
      "TENS": 8075,
      "precip": 8076,
      "economics": 8077,
      "pairs": 8078,
      "transition": 8079,
      "weakness": 8080,
      "stroma": 8081,
      "fibrin": 8082,
      "conflicts": 8083,
      "Martin": 8084,
      "ounce": 8085,
      "precursor": 8086,
      "Rhinitis": 8087,
      "sustained": 8088,
      "Psycho": 8089,
      "habits": 8090,
      "recreational": 8091,
      "anesthetics": 8092,
      "Sensory": 8093,
      "trimester": 8094,
      "strengthening": 8095,
      "Peripheral": 8096,
      "false": 8097,
      "tript": 8098,
      "biofeedback": 8099,
      "intolerance": 8100,
      "armaceutical": 8101,
      "aorta": 8102,
      "cetirizine": 8103,
      "FABQ": 8104,
      "Seidman": 8105,
      "phedrine": 8106,
      "preliminary": 8107,
      "Sánchez": 8108,
      "Thompson": 8109,
      "214": 8110,
      "322": 8111,
      "DD": 8112,
      "Det": 8113,
      "Duration": 8114,
      "Even": 8115,
      "Eosinophil": 8116,
      "GT": 8117,
      "Gar": 8118,
      "GDM": 8119,
      "Jac": 8120,
      "KE": 8121,
      "Lev": 8122,
      "LINE": 8123,
      "N2O": 8124,
      "Ow": 8125,
      "Sha": 8126,
      "Take": 8127,
      "Vir": 8128,
      "Wat": 8129,
      "bott": 8130,
      "dang": 8131,
      "dications": 8132,
      "file": 8133,
      "hall": 8134,
      "lan": 8135,
      "lass": 8136,
      "lignocaine": 8137,
      "ncrest": 8138,
      "ptive": 8139,
      "pediatr": 8140,
      "sn": 8141,
      "sick": 8142,
      "scope": 8143,
      "war": 8144,
      "가중": 8145,
      "하지": 8146,
      "indi": 8147,
      "incomplete": 8148,
      "anu": 8149,
      "alert": 8150,
      "arma": 8151,
      "tos": 8152,
      "ingest": 8153,
      "itate": 8154,
      "oli": 8155,
      "ulate": 8156,
      "cher": 8157,
      "const": 8158,
      "emann": 8159,
      "osac": 8160,
      "ossification": 8161,
      "207": 8162,
      "lough": 8163,
      "odermal": 8164,
      "beans": 8165,
      "immediat": 8166,
      "exten": 8167,
      "examine": 8168,
      "otens": 8169,
      "otamine": 8170,
      "otene": 8171,
      "ticular": 8172,
      "ured": 8173,
      "vitis": 8174,
      "cellent": 8175,
      "team": 8176,
      "ionally": 8177,
      "preced": 8178,
      "premature": 8179,
      "biochemical": 8180,
      "card": 8181,
      "ideal": 8182,
      "Chan": 8183,
      "Chrom": 8184,
      "caffeine": 8185,
      "nostr": 8186,
      "axo": 8187,
      "cleft": 8188,
      "match": 8189,
      "178": 8190,
      "serves": 8191,
      "raw": 8192,
      "305": 8193,
      "overview": 8194,
      "249": 8195,
      "ARDS": 8196,
      "Adverse": 8197,
      "aminophen": 8198,
      "variations": 8199,
      "diagnosing": 8200,
      "specificity": 8201,
      "refr": 8202,
      "297": 8203,
      "Pharyngeal": 8204,
      "immuno": 8205,
      "sitting": 8206,
      "description": 8207,
      "radio": 8208,
      "radiotherapy": 8209,
      "mias": 8210,
      "Epi": 8211,
      "Epinephrine": 8212,
      "drop": 8213,
      "pollen": 8214,
      "Tran": 8215,
      "Columb": 8216,
      "uclear": 8217,
      "seven": 8218,
      "considerations": 8219,
      "Bron": 8220,
      "etermin": 8221,
      "injected": 8222,
      "1987": 8223,
      "Effective": 8224,
      "Before": 8225,
      "glycemic": 8226,
      "environments": 8227,
      "protect": 8228,
      "experts": 8229,
      "Short": 8230,
      "empty": 8231,
      "Consortium": 8232,
      "inhibitor": 8233,
      "explain": 8234,
      "Internet": 8235,
      "idespread": 8236,
      "salt": 8237,
      "효과모형": 8238,
      "determining": 8239,
      "Description": 8240,
      "referral": 8241,
      "tware": 8242,
      "classes": 8243,
      "insert": 8244,
      "vaporiser": 8245,
      "cortisone": 8246,
      "figure": 8247,
      "believe": 8248,
      "regulate": 8249,
      "Larson": 8250,
      "oriasis": 8251,
      "validated": 8252,
      "reflexology": 8253,
      "buds": 8254,
      "aspect": 8255,
      "checklist": 8256,
      "parallel": 8257,
      "Remember": 8258,
      "Histo": 8259,
      "Vascular": 8260,
      "aphase": 8261,
      "haemorrhage": 8262,
      "Micro": 8263,
      "fitness": 8264,
      "diabetic": 8265,
      "septum": 8266,
      "tunica": 8267,
      "accessible": 8268,
      "microscope": 8269,
      "ville": 8270,
      "seems": 8271,
      "vestibular": 8272,
      "tipation": 8273,
      "Consultants": 8274,
      "reproductive": 8275,
      "draft": 8276,
      "recumbency": 8277,
      "propria": 8278,
      "prominent": 8279,
      "visceral": 8280,
      "Tbsp": 8281,
      "Course": 8282,
      "Surgeons": 8283,
      "Ventilation": 8284,
      "crisis": 8285,
      "Environmental": 8286,
      "Endocrin": 8287,
      "migraines": 8288,
      "adventitia": 8289,
      "equivalent": 8290,
      "Ottawa": 8291,
      "Audio": 8292,
      "immediately": 8293,
      "otensin": 8294,
      "%;": 8295,
      ".).": 8296,
      "217": 8297,
      "600": 8298,
      "760": 8299,
      ";(": 8300,
      "Bre": 8301,
      "Cross": 8302,
      "Den": 8303,
      "Dig": 8304,
      "Electro": 8305,
      "GC": 8306,
      "Grow": 8307,
      "HF": 8308,
      "HO": 8309,
      "Kline": 8310,
      "NY": 8311,
      "RN": 8312,
      "SG": 8313,
      "TW": 8314,
      "UL": 8315,
      "VA": 8316,
      "Very": 8317,
      "bab": 8318,
      "iet": 8319,
      "pend": 8320,
      "ration": 8321,
      "inate": 8322,
      "informed": 8323,
      "throm": 8324,
      "tise": 8325,
      "arbit": 8326,
      "asi": 8327,
      "toli": 8328,
      "acious": 8329,
      "acetyl": 8330,
      "itated": 8331,
      "itching": 8332,
      "stain": 8333,
      "stret": 8334,
      "stalk": 8335,
      "elt": 8336,
      "elds": 8337,
      "elderly": 8338,
      "idge": 8339,
      "ecutive": 8340,
      "hearing": 8341,
      "ilaminar": 8342,
      "urition": 8343,
      "dimin": 8344,
      "chain": 8345,
      "changing": 8346,
      "conclusion": 8347,
      "congenital": 8348,
      "conversion": 8349,
      "ading": 8350,
      "adone": 8351,
      "train": 8352,
      "apy": 8353,
      "ammadex": 8354,
      "eva": 8355,
      "comitant": 8356,
      "comprom": 8357,
      "iring": 8358,
      "excellent": 8359,
      "oting": 8360,
      "pher": 8361,
      "sea": 8362,
      "rend": 8363,
      "Intranasal": 8364,
      "mous": 8365,
      "neon": 8366,
      "meiotic": 8367,
      "cough": 8368,
      "disclose": 8369,
      "disrup": 8370,
      "ears": 8371,
      "grant": 8372,
      "positions": 8373,
      "drinks": 8374,
      "asty": 8375,
      "biomed": 8376,
      "lesion": 8377,
      "253": 8378,
      "voluntary": 8379,
      "shared": 8380,
      "oxim": 8381,
      "oxetine": 8382,
      "provider": 8383,
      "Advisory": 8384,
      "237": 8385,
      "amination": 8386,
      "cornea": 8387,
      "coronary": 8388,
      "limiting": 8389,
      "membranous": 8390,
      "275": 8391,
      "crim": 8392,
      "responsi": 8393,
      "simpl": 8394,
      "mmol": 8395,
      "attemp": 8396,
      "soluble": 8397,
      "drogas": 8398,
      "periodontal": 8399,
      "urses": 8400,
      "osteum": 8401,
      "ulinum": 8402,
      "comparative": 8403,
      "stimulus": 8404,
      "Orig": 8405,
      "Atl": 8406,
      "Supplement": 8407,
      "Leisure": 8408,
      "office": 8409,
      "Intervention": 8410,
      "sensation": 8411,
      "ilibr": 8412,
      "Simple": 8413,
      "연구의": 8414,
      "Basic": 8415,
      "thorough": 8416,
      "macro": 8417,
      "Music": 8418,
      "Musculoskeletal": 8419,
      "synthesized": 8420,
      "cytoplasmic": 8421,
      "targeted": 8422,
      "Glaxo": 8423,
      "believed": 8424,
      "tendency": 8425,
      "Pressure": 8426,
      "gradually": 8427,
      "recognize": 8428,
      "PCFC": 8429,
      "Labor": 8430,
      "proliferate": 8431,
      "independently": 8432,
      "PEEP": 8433,
      "cepti": 8434,
      "anaesthetized": 8435,
      "Infec": 8436,
      "diagnose": 8437,
      "otropin": 8438,
      "directional": 8439,
      "episode": 8440,
      "Functions": 8441,
      "Remarks": 8442,
      "tock": 8443,
      "granulosa": 8444,
      "manifestations": 8445,
      "circulatory": 8446,
      "추정치": 8447,
      "NIH": 8448,
      "tolerate": 8449,
      "German": 8450,
      "basophils": 8451,
      "combine": 8452,
      "compound": 8453,
      "DBPCFC": 8454,
      "excretion": 8455,
      "osmolality": 8456,
      "표준화": 8457,
      "conceal": 8458,
      "trasound": 8459,
      "amethasone": 8460,
      "Epidural": 8461,
      "November": 8462,
      "parameters": 8463,
      "Acepromazine": 8464,
      "Jacob": 8465,
      "attempts": 8466,
      "(=": 8467,
      "325": 8468,
      "5th": 8469,
      "6th": 8470,
      "AG": 8471,
      "BS": 8472,
      "Brown": 8473,
      "Dro": 8474,
      "Date": 8475,
      "Fatigue": 8476,
      "Gly": 8477,
      "Gonad": 8478,
      "Ka": 8479,
      "Know": 8480,
      "Nar": 8481,
      "Pac": 8482,
      "Pri": 8483,
      "Preg": 8484,
      "Rod": 8485,
      "Rates": 8486,
      "RAND": 8487,
      "SO": 8488,
      "Spain": 8489,
      "TJ": 8490,
      "Usu": 8491,
      "cation": 8492,
      "gerald": 8493,
      "kal": 8494,
      "nion": 8495,
      "pent": 8496,
      "peds": 8497,
      "rated": 8498,
      "sar": 8499,
      "say": 8500,
      "scar": 8501,
      "swelling": 8502,
      "var": 8503,
      "vigorous": 8504,
      "widespread": 8505,
      "yr": 8506,
      "zquez": 8507,
      "ázquez": 8508,
      "군에서": 8509,
      "다음": 8510,
      "ino": 8511,
      "invas": 8512,
      "inconsistent": 8513,
      "react": 8514,
      "retri": 8515,
      "tiotroph": 8516,
      "ena": 8517,
      "orical": 8518,
      "orally": 8519,
      "orie": 8520,
      "theory": 8521,
      "edge": 8522,
      "atonin": 8523,
      "asto": 8524,
      "ita": 8525,
      "staff": 8526,
      "ometer": 8527,
      "divisions": 8528,
      "pros": 8529,
      "prohib": 8530,
      "ado": 8531,
      "adver": 8532,
      "tral": 8533,
      "lobe": 8534,
      "aper": 8535,
      "oden": 8536,
      "behind": 8537,
      "image": 8538,
      "optim": 8539,
      "igong": 8540,
      "irregular": 8541,
      "inea": 8542,
      "sibl": 8543,
      "clim": 8544,
      "cans": 8545,
      "hoto": 8546,
      "plasty": 8547,
      "ender": 8548,
      "lowest": 8549,
      "discre": 8550,
      "disabilities": 8551,
      "lling": 8552,
      "soon": 8553,
      "sole": 8554,
      "sover": 8555,
      "ighth": 8556,
      "avel": 8557,
      "Anatom": 8558,
      "obility": 8559,
      "maximal": 8560,
      "Stan": 8561,
      "flatten": 8562,
      "atica": 8563,
      "mones": 8564,
      "acea": 8565,
      "centers": 8566,
      "regut": 8567,
      "2288": 8568,
      "302": 8569,
      "306": 8570,
      "urogenital": 8571,
      "254": 8572,
      "Alveol": 8573,
      "264": 8574,
      "skill": 8575,
      "skmus": 8576,
      "chron": 8577,
      "lects": 8578,
      "Probiotics": 8579,
      "assessments": 8580,
      "potassium": 8581,
      "firm": 8582,
      "Formation": 8583,
      "consuming": 8584,
      "erck": 8585,
      "placode": 8586,
      "294": 8587,
      "298": 8588,
      "individualized": 8589,
      "responsive": 8590,
      "neuroimaging": 8591,
      "transformation": 8592,
      "ESS": 8593,
      "CIP": 8594,
      "Assoc": 8595,
      "pathological": 8596,
      "Artic": 8597,
      "mitted": 8598,
      "midline": 8599,
      "consistently": 8600,
      "sinuses": 8601,
      "wards": 8602,
      "neezing": 8603,
      "alveolus": 8604,
      "Supplementary": 8605,
      "neuronal": 8606,
      "glycemia": 8607,
      "profound": 8608,
      "Cartil": 8609,
      "closely": 8610,
      "hypno": 8611,
      "CRPS": 8612,
      "Within": 8613,
      "rogenic": 8614,
      "explained": 8615,
      "thorax": 8616,
      "Septation": 8617,
      "hydroxy": 8618,
      "Centers": 8619,
      "branched": 8620,
      "Describe": 8621,
      "said": 8622,
      "screened": 8623,
      "afferent": 8624,
      "inserted": 8625,
      "discuss": 8626,
      "Sertoli": 8627,
      "emerging": 8628,
      "Differences": 8629,
      "ographs": 8630,
      "analyzed": 8631,
      "Related": 8632,
      "aggreg": 8633,
      "precision": 8634,
      "pelvis": 8635,
      "Hormones": 8636,
      "Increase": 8637,
      "dicated": 8638,
      "restricted": 8639,
      "Bern": 8640,
      "Choose": 8641,
      "SmithKline": 8642,
      "Testing": 8643,
      "software": 8644,
      "Alternat": 8645,
      "myelinated": 8646,
      "nolence": 8647,
      "exceed": 8648,
      "circulating": 8649,
      "bacteria": 8650,
      "hypothalamic": 8651,
      "dopamine": 8652,
      "Ecto": 8653,
      "advisable": 8654,
      "registration": 8655,
      "compounds": 8656,
      "papillae": 8657,
      "yield": 8658,
      "Contents": 8659,
      "seizures": 8660,
      "slightly": 8661,
      "lactation": 8662,
      "turbinate": 8663,
      "funnel": 8664,
      "Antonio": 8665,
      "Zhang": 8666,
      "Guide": 8667,
      "Fitzgerald": 8668,
      "Miller": 8669,
      "seminiferous": 8670,
      "Frequent": 8671,
      "epiblast": 8672,
      "Heterogeneity": 8673,
      "rehabilitation": 8674,
      "nostril": 8675,
      "GlaxoSmithKline": 8676,
      ")-": 8677,
      "218": 8678,
      "800": 8679,
      "AAN": 8680,
      "Ahn": 8681,
      "Crit": 8682,
      "Est": 8683,
      "Fac": 8684,
      "KH": 8685,
      "Lin": 8686,
      "Lou": 8687,
      "Mich": 8688,
      "Milk": 8689,
      "Morphine": 8690,
      "PLo": 8691,
      "RG": 8692,
      "Rap": 8693,
      "Tay": 8694,
      "VI": 8695,
      "YS": 8696,
      "athe": 8697,
      "cu": 8698,
      "cited": 8699,
      "cilia": 8700,
      "cattle": 8701,
      "e3": 8702,
      "ephedrine": 8703,
      "hil": 8704,
      "hCG": 8705,
      "ient": 8706,
      "ko": 8707,
      "oz": 8708,
      "sun": 8709,
      "saf": 8710,
      "sides": 8711,
      "이용": 8712,
      "적인": 8713,
      "inely": 8714,
      "reactive": 8715,
      "retur": 8716,
      "orage": 8717,
      "aturated": 8718,
      "arises": 8719,
      "ico": 8720,
      "rosome": 8721,
      "itin": 8722,
      "staging": 8723,
      "elvic": 8724,
      "idne": 8725,
      "olus": 8726,
      "ulative": 8727,
      "urg": 8728,
      "dip": 8729,
      "osomal": 8730,
      "lysis": 8731,
      "amel": 8732,
      "amnion": 8733,
      "opress": 8734,
      "opposite": 8735,
      "oty": 8736,
      "sian": 8737,
      "thermal": 8738,
      "systo": 8739,
      "hoea": 8740,
      "neutrophils": 8741,
      "ureth": 8742,
      "meres": 8743,
      "count": 8744,
      "hypot": 8745,
      "foot": 8746,
      "indle": 8747,
      "former": 8748,
      "Then": 8749,
      "actually": 8750,
      "effectively": 8751,
      "intervertebral": 8752,
      "clini": 8753,
      "surveys": 8754,
      "acepromazine": 8755,
      "centri": 8756,
      "meter": 8757,
      "controlling": 8758,
      "degranulation": 8759,
      "coli": 8760,
      "ensen": 8761,
      "Connec": 8762,
      "Congenital": 8763,
      "Conclusions": 8764,
      "Content": 8765,
      "derance": 8766,
      "Acad": 8767,
      "222": 8768,
      "251": 8769,
      "keto": 8770,
      "compare": 8771,
      "238": 8772,
      "coring": 8773,
      "norm": 8774,
      "norms": 8775,
      "mode": 8776,
      "rectum": 8777,
      "INTER": 8778,
      "eliac": 8779,
      "Prog": 8780,
      "287": 8781,
      "horn": 8782,
      "Units": 8783,
      "277": 8784,
      "mesonephric": 8785,
      "myosin": 8786,
      "trop": 8787,
      "rests": 8788,
      "COMM": 8789,
      "sized": 8790,
      "circular": 8791,
      "blocking": 8792,
      "dromes": 8793,
      "policies": 8794,
      "annual": 8795,
      "remission": 8796,
      "midazolam": 8797,
      "osteoblasts": 8798,
      "centralization": 8799,
      "lacking": 8800,
      "comparisons": 8801,
      "greatly": 8802,
      "ovum": 8803,
      "Systemic": 8804,
      "Internal": 8805,
      "orbital": 8806,
      "euthan": 8807,
      "cinoma": 8808,
      "Doug": 8809,
      "restriction": 8810,
      "asymmet": 8811,
      "adeno": 8812,
      "transparent": 8813,
      "routinely": 8814,
      "degrees": 8815,
      "Service": 8816,
      "grades": 8817,
      "ospheric": 8818,
      "Febr": 8819,
      "adjustment": 8820,
      "encouraged": 8821,
      "substantially": 8822,
      "ginseng": 8823,
      "leukotriene": 8824,
      "Harris": 8825,
      "cultural": 8826,
      "propofol": 8827,
      "Roberts": 8828,
      "corticosteroids": 8829,
      "bacterial": 8830,
      "dopt": 8831,
      "package": 8832,
      "utilizing": 8833,
      "Specialty": 8834,
      "expectations": 8835,
      "Types": 8836,
      "atmosp": 8837,
      "permeability": 8838,
      "Expert": 8839,
      "benzodiazepines": 8840,
      "crossover": 8841,
      "identical": 8842,
      "vasoconstriction": 8843,
      "Speaker": 8844,
      "shellfish": 8845,
      "derivatives": 8846,
      "shift": 8847,
      "Objectives": 8848,
      "Number": 8849,
      "anastom": 8850,
      "사건이": 8851,
      "Young": 8852,
      "antiemetics": 8853,
      "arrangement": 8854,
      "commercial": 8855,
      "Growth": 8856,
      "biomedcentral": 8857,
      "Pregn": 8858,
      "PLoS": 8859,
      "idneys": 8860,
      "013": 8861,
      "219": 8862,
      "215": 8863,
      "313": 8864,
      "Abr": 8865,
      "Bu": 8866,
      "Ble": 8867,
      "Bel": 8868,
      "Britis": 8869,
      "Dar": 8870,
      "Doc": 8871,
      "Due": 8872,
      "Fin": 8873,
      "Gázquez": 8874,
      "Hop": 8875,
      "Hay": 8876,
      "Hall": 8877,
      "Hence": 8878,
      "Io": 8879,
      "Lind": 8880,
      "Lack": 8881,
      "Men": 8882,
      "Mental": 8883,
      "Món": 8884,
      "Merck": 8885,
      "Nag": 8886,
      "Num": 8887,
      "Op": 8888,
      "Our": 8889,
      "Pur": 8890,
      "Que": 8891,
      "RT": 8892,
      "Scho": 8893,
      "Sleep": 8894,
      "Scler": 8895,
      "T1": 8896,
      "Tum": 8897,
      "Tob": 8898,
      "UG": 8899,
      "Ur": 8900,
      "Wilk": 8901,
      "b280": 8902,
      "d4": 8903,
      "ere": 8904,
      "fed": 8905,
      "lu": 8906,
      "lity": 8907,
      "law": 8908,
      "mL": 8909,
      "mel": 8910,
      "mite": 8911,
      "mosomes": 8912,
      "nas": 8913,
      "nation": 8914,
      "sche": 8915,
      "tables": 8916,
      "zz": 8917,
      "zes": 8918,
      "zol": 8919,
      "’.": 8920,
      "확률": 8921,
      "inations": 8922,
      "inverse": 8923,
      "rein": 8924,
      "tiary": 8925,
      "erved": 8926,
      "envel": 8927,
      "alg": 8928,
      "align": 8929,
      "altered": 8930,
      "orn": 8931,
      "ands": 8932,
      "arts": 8933,
      "icacious": 8934,
      "roles": 8935,
      "entin": 8936,
      "tooth": 8937,
      "style": 8938,
      "stasy": 8939,
      "elen": 8940,
      "uscript": 8941,
      "idi": 8942,
      "ulo": 8943,
      "ultimately": 8944,
      "hemat": 8945,
      "ilaments": 8946,
      "diure": 8947,
      "chance": 8948,
      "cone": 8949,
      "emin": 8950,
      "projec": 8951,
      "prostatic": 8952,
      "prolactin": 8953,
      "trated": 8954,
      "exclude": 8955,
      "ump": 8956,
      "umulation": 8957,
      "ota": 8958,
      "permis": 8959,
      "quite": 8960,
      "endurance": 8961,
      "neigh": 8962,
      "ologist": 8963,
      "196": 8964,
      "formal": 8965,
      "manuscript": 8966,
      "ongest": 8967,
      "actively": 8968,
      "duced": 8969,
      "1465": 8970,
      "avas": 8971,
      "astine": 8972,
      "max": 8973,
      "diffusion": 8974,
      "flam": 8975,
      "entives": 8976,
      "surge": 8977,
      "idea": 8978,
      "mono": 8979,
      "acean": 8980,
      "calorie": 8981,
      "Context": 8982,
      "Concepts": 8983,
      "feas": 8984,
      "feet": 8985,
      "feedback": 8986,
      "Acup": 8987,
      "arios": 8988,
      "304": 8989,
      "ricular": 8990,
      "258": 8991,
      "desired": 8992,
      "desirable": 8993,
      "Alber": 8994,
      "Combin": 8995,
      "decades": 8996,
      "physically": 8997,
      "261": 8998,
      "265": 8999,
      "268": 9000,
      "critically": 9001,
      "nonpharmacologic": 9002,
      "reductions": 9003,
      "Project": 9004,
      "defect": 9005,
      "273": 9006,
      "278": 9007,
      "290": 9008,
      "335": 9009,
      "parturition": 9010,
      "Neur": 9011,
      "secreting": 9012,
      "immunoglobulin": 9013,
      "cardio": 9014,
      "transmission": 9015,
      "efficient": 9016,
      "lymphoid": 9017,
      "rhinorrhea": 9018,
      "tranqu": 9019,
      "organisms": 9020,
      "expiratory": 9021,
      "describing": 9022,
      "Emerg": 9023,
      "Brain": 9024,
      "eyes": 9025,
      "About": 9026,
      "differentiates": 9027,
      "catechol": 9028,
      "Pertus": 9029,
      "blinding": 9030,
      "ectodermal": 9031,
      "origins": 9032,
      "sciatica": 9033,
      "metabolites": 9034,
      "explan": 9035,
      "microtubules": 9036,
      "thickness": 9037,
      "sprays": 9038,
      "classroom": 9039,
      "reaches": 9040,
      "atopy": 9041,
      "suscepti": 9042,
      "observation": 9043,
      "Serban": 9044,
      "Present": 9045,
      "binds": 9046,
      "electroacupuncture": 9047,
      "sweat": 9048,
      "Placental": 9049,
      "superficial": 9050,
      "synapses": 9051,
      "juana": 9052,
      "removal": 9053,
      "fibroblasts": 9054,
      "integration": 9055,
      "propion": 9056,
      "Function": 9057,
      "Outcome": 9058,
      "Gastroenterology": 9059,
      "gaps": 9060,
      "otrophin": 9061,
      "quantitative": 9062,
      "protocols": 9063,
      "Hispanic": 9064,
      "melanoma": 9065,
      "lacto": 9066,
      "provocation": 9067,
      "residual": 9068,
      "metastatic": 9069,
      "metastases": 9070,
      "Pharmacologic": 9071,
      "emphasize": 9072,
      "ANAT2341L": 9073,
      "employed": 9074,
      "angiotensin": 9075,
      "Maintenance": 9076,
      "satisf": 9077,
      "Techn": 9078,
      "BioMed": 9079,
      "dendrites": 9080,
      "contractility": 9081,
      "Multiple": 9082,
      "conjunctivitis": 9083,
      "MEDLINE": 9084,
      "Richard": 9085,
      "faxalone": 9086,
      "Bolanu": 9087,
      "morbidity": 9088,
      "Propofol": 9089,
      "Occasional": 9090,
      "Nevertheless": 9091,
      "causative": 9092,
      "expenditure": 9093,
      "dangerous": 9094,
      "Atlanta": 9095,
      "Infectious": 9096,
      "flattened": 9097,
      "systolic": 9098,
      "February": 9099,
      "atmosphere": 9100,
      "British": 9101,
      "Mónica": 9102,
      "Pertusa": 9103,
      "317": 9104,
      "327": 9105,
      "450": 9106,
      "Ay": 9107,
      "Alex": 9108,
      "C2": 9109,
      "Cro": 9110,
      "DF": 9111,
      "Dy": 9112,
      "EK": 9113,
      "IU": 9114,
      "Ide": 9115,
      "Kr": 9116,
      "MG": 9117,
      "MT": 9118,
      "MIL": 9119,
      "Oct": 9120,
      "Ps": 9121,
      "Pt": 9122,
      "Plas": 9123,
      "Pneum": 9124,
      "RI": 9125,
      "Sl": 9126,
      "Tor": 9127,
      "VSL": 9128,
      "Wall": 9129,
      "Who": 9130,
      "cd": 9131,
      "cis": 9132,
      "cel": 9133,
      "code": 9134,
      "cumul": 9135,
      "dairy": 9136,
      "e20171961": 9137,
      "fused": 9138,
      "ference": 9139,
      "glia": 9140,
      "hans": 9141,
      "jaw": 9142,
      "kill": 9143,
      "mult": 9144,
      "mari": 9145,
      "ny": 9146,
      "pare": 9147,
      "ranges": 9148,
      "ranged": 9149,
      "uation": 9150,
      "vital": 9151,
      "ws": 9152,
      "writ": 9153,
      "zen": 9154,
      "대조": 9155,
      "대한": 9156,
      "로그": 9157,
      "므로": 9158,
      "변동": 9159,
      "통합": 9160,
      "inating": 9161,
      "really": 9162,
      "titive": 9163,
      "ern": 9164,
      "esti": 9165,
      "escap": 9166,
      "oria": 9167,
      "atresia": 9168,
      "arach": 9169,
      "icult": 9170,
      "rot": 9171,
      "entry": 9172,
      "acin": 9173,
      "stag": 9174,
      "else": 9175,
      "omics": 9176,
      "olfactory": 9177,
      "uli": 9178,
      "ilton": 9179,
      "diasto": 9180,
      "une": 9181,
      "unger": 9182,
      "convol": 9183,
      "concepts": 9184,
      "adhes": 9185,
      "trilaminar": 9186,
      "ager": 9187,
      "abd": 9188,
      "abund": 9189,
      "impossible": 9190,
      "examples": 9191,
      "permanent": 9192,
      "canals": 9193,
      "Intensive": 9194,
      "pla": 9195,
      "wean": 9196,
      "vix": 9197,
      "1031": 9198,
      "foregut": 9199,
      "1979": 9200,
      "industr": 9201,
      "gradi": 9202,
      "Thomas": 9203,
      "actory": 9204,
      "istaxis": 9205,
      "genic": 9206,
      "viewed": 9207,
      "Anxi": 9208,
      "relating": 9209,
      "oblet": 9210,
      "Meditation": 9211,
      "Chest": 9212,
      "calcaemia": 9213,
      "timate": 9214,
      "antibiotics": 9215,
      "antibiotic": 9216,
      "antioxid": 9217,
      "antidepressants": 9218,
      "224": 9219,
      "255": 9220,
      "shorter": 9221,
      "request": 9222,
      "compens": 9223,
      "carefully": 9224,
      "healthcare": 9225,
      "sky": 9226,
      "231": 9227,
      "create": 9228,
      "Princ": 9229,
      "Onset": 9230,
      "syncy": 9231,
      "284": 9232,
      "define": 9233,
      "reflects": 9234,
      "271": 9235,
      "293": 9236,
      "296": 9237,
      "apparent": 9238,
      "trophy": 9239,
      "aryng": 9240,
      "AST": 9241,
      "Selective": 9242,
      "efficacious": 9243,
      "grows": 9244,
      "MSc": 9245,
      "Arthritis": 9246,
      "Graves": 9247,
      "labels": 9248,
      "searched": 9249,
      "indicating": 9250,
      "Read": 9251,
      "communities": 9252,
      "predis": 9253,
      "multidisciplinary": 9254,
      "readily": 9255,
      "488": 9256,
      "postsynaptic": 9257,
      "TH2": 9258,
      "THC": 9259,
      "generative": 9260,
      "ACR": 9261,
      "regarded": 9262,
      "smokers": 9263,
      "aska": 9264,
      "asked": 9265,
      "airways": 9266,
      "blocked": 9267,
      "intraembryonic": 9268,
      "Shar": 9269,
      "PaO2": 9270,
      "ituitarism": 9271,
      "walls": 9272,
      "remaining": 9273,
      "births": 9274,
      "lottic": 9275,
      "nodule": 9276,
      "IIIe": 9277,
      "confined": 9278,
      "intubating": 9279,
      "Agg": 9280,
      "Cells": 9281,
      "purposes": 9282,
      "Defect": 9283,
      "Regional": 9284,
      "regulatory": 9285,
      "morphological": 9286,
      "Larsen": 9287,
      "accurately": 9288,
      "vagina": 9289,
      "recorded": 9290,
      "lipids": 9291,
      "mediator": 9292,
      "consultants": 9293,
      "resolved": 9294,
      "acceptance": 9295,
      "Assessing": 9296,
      "establishing": 9297,
      "aspir": 9298,
      "predictors": 9299,
      "Soy": 9300,
      "adapted": 9301,
      "rupture": 9302,
      "diazepam": 9303,
      "onephros": 9304,
      "Reporting": 9305,
      "Choi": 9306,
      "commitment": 9307,
      "patches": 9308,
      "PubMed": 9309,
      "slide": 9310,
      "medicines": 9311,
      "Scott": 9312,
      "Criteria": 9313,
      "occasional": 9314,
      "erythrocytes": 9315,
      "Strongly": 9316,
      "Halothane": 9317,
      "ponderance": 9318,
      "scenario": 9319,
      "technology": 9320,
      "Identify": 9321,
      "Block": 9322,
      "Potential": 9323,
      "etiology": 9324,
      "rescue": 9325,
      "autonomic": 9326,
      "androgens": 9327,
      "sepsis": 9328,
      "warranted": 9329,
      "Population": 9330,
      "Character": 9331,
      "발생할": 9332,
      "atriptan": 9333,
      "quickly": 9334,
      "Kingdom": 9335,
      "Veterinary": 9336,
      "convuls": 9337,
      "mentioned": 9338,
      "Analgesia": 9339,
      "osacral": 9340,
      "표준화된": 9341,
      "Taylor": 9342,
      "Ioann": 9343,
      "Numerous": 9344,
      "multin": 9345,
      "convoluted": 9346,
      "1S": 9347,
      "311": 9348,
      "350": 9349,
      "AK": 9350,
      "Aura": 9351,
      "BN": 9352,
      "CF": 9353,
      "Fo": 9354,
      "Fund": 9355,
      "FGF": 9356,
      "GL": 9357,
      "Gory": 9358,
      "Gastr": 9359,
      "Horses": 9360,
      "JAN": 9361,
      "Kuz": 9362,
      "LP": 9363,
      "Lew": 9364,
      "Law": 9365,
      "Mer": 9366,
      "Mary": 9367,
      "MMR": 9368,
      "Melan": 9369,
      "Mobility": 9370,
      "Nelson": 9371,
      "PTH": 9372,
      "RB": 9373,
      "Sic": 9374,
      "SPE": 9375,
      "TT": 9376,
      "Tissue": 9377,
      "Voh": 9378,
      "aur": 9379,
      "cc": 9380,
      "cand": 9381,
      "fenes": 9382,
      "ged": 9383,
      "git": 9384,
      "global": 9385,
      "ka": 9386,
      "kew": 9387,
      "lam": 9388,
      "lists": 9389,
      "nt": 9390,
      "none": 9391,
      "ovid": 9392,
      "pyl": 9393,
      "sneezing": 9394,
      "scoring": 9395,
      "tell": 9396,
      "tachycardia": 9397,
      "von": 9398,
      "yellow": 9399,
      "승산": 9400,
      "indirect": 9401,
      "invag": 9402,
      "inatal": 9403,
      "repair": 9404,
      "ondr": 9405,
      "orax": 9406,
      "thelium": 9407,
      "editors": 9408,
      "atol": 9409,
      "rob": 9410,
      "rol": 9411,
      "rods": 9412,
      "tome": 9413,
      "acrosome": 9414,
      "itary": 9415,
      "lee": 9416,
      "olf": 9417,
      "iles": 9418,
      "digestive": 9419,
      "conven": 9420,
      "concomitant": 9421,
      "eman": 9422,
      "emed": 9423,
      "emesis": 9424,
      "adel": 9425,
      "trac": 9426,
      "aglottic": 9427,
      "examethasone": 9428,
      "ogy": 9429,
      "Infrequent": 9430,
      "plug": 9431,
      "mouse": 9432,
      "endoplas": 9433,
      "spindle": 9434,
      "cervix": 9435,
      "meg": 9436,
      "este": 9437,
      "preterm": 9438,
      "prevents": 9439,
      "Thiopentone": 9440,
      "istent": 9441,
[...]
